#version: 0.2
h e</w>
i n
▁t he</w>
t i
e r
e n
e d</w>
a n
o n
a ▁
o r
o n</w>
a r
▁o f</w>
t ▁
e ▁
in g</w>
n d</w>
o u
e r</w>
i ▁
o ▁
e s
▁t o</w>
▁t h
e a
e s</w>
e c
i t
r o
i c
▁a nd</w>
o s
a l</w>
a ti
i s
i l
o r</w>
▁i n</w>
- @</w>
t h
o m
a l
e l
a t
a t</w>
@ -@</w>
u r
en t</w>
q u
a n</w>
▁i s</w>
t he</w>
a s</w>
t r
t s</w>
e n</w>
e m
p os
o t
c e</w>
o l
u s
v e</w>
t▁ he</w>
▁i n
a s
▁w h
a c
ati on</w>
l y</w>
i s</w>
i d
▁th at</w>
r e
n g</w>
i r
▁ e</w>
▁T he</w>
ot ;</w>
l e</w>
u c
i n</w>
t h</w>
i g
u l
r e</w>
c h
u ▁
▁f or</w>
pos ;
p ▁
an d</w>
a m
▁o n</w>
& a▁
ti on</w>
v er
e t
er e</w>
▁p ro
f f
s ▁
a g
qu ot;</w>
a y</w>
u n
r ▁
▁a s</w>
o f</w>
p l
it h</w>
▁i t</w>
i m
▁c on
t o</w>
▁b e</w>
t ed</w>
er s</w>
o o
▁r e
t er</w>
h ▁
&a▁ pos;
a▁ nd</w>
o c
▁b y</w>
r es
▁e x
u t</w>
o p
w ▁
il l</w>
m ent</w>
▁s h
o t</w>
▁c om
u d
o u</w>
s t
▁w ith</w>
s e</w>
i on</w>
▁s t
▁h a
▁w as</w>
o w
p or
a b
r i
it y</w>
e t</w>
c ▁
a d
on g</w>
e v
▁a re</w>
ou n
a p
p er
on s</w>
f ▁
l ▁
r ea
i c</w>
e▁ n
d ▁
s t</w>
i▁ ng</w>
t er
in ▁
at e</w>
al l</w>
▁w ill</w>
i ti
u m
▁a l
l d</w>
i t</w>
i d</w>
on g
d uc
a k
▁K or
▁a t</w>
& quot;</w>
ro m</w>
▁c h
a y
▁y ou</w>
f or
i v
e x
e e</w>
t y</w>
▁th e
ic e</w>
u b
c i
▁T h
m ▁
an ▁
e a</w>
▁, ,</w>
o w</w>
e d
ti ▁
e ar
c h</w>
c on
▁ s</w>
▁b e
&a▁pos; s</w>
an g
i z
b ▁
th ▁
▁ha ve</w>
p ro
ic h</w>
n ▁
t ur
y e
▁f rom</w>
ea r</w>
o ver
d s</w>
r ou
e p
s i
en ts</w>
p ec
i es</w>
e g
en ▁
▁r es
i m</w>
▁u n
▁h as</w>
u e</w>
c om
on al</w>
th er</w>
a r</w>
▁a n</w>
▁p l
▁a c
d ing</w>
ar y</w>
c l
ig h
en t
a t▁
▁I n</w>
i r</w>
e▁ r
▁p ar
▁C h
a in
▁n ot</w>
es s</w>
▁I t</w>
▁wh ich</w>
an ce</w>
t ing</w>
an t</w>
▁th is</w>
▁t r
& a
l l</w>
o▁ n</w>
▁p er
t e</w>
s o</w>
▁e n
▁w or
ou t</w>
d er</w>
g ▁
o v
▁o n
es t</w>
a id</w>
th ▁e</w>
over n
i al</w>
e▁n t</w>
& ▁
▁o r</w>
g h</w>
at ed</w>
g e</w>
▁wh o</w>
▁ ed</w>
a▁ r
u p
▁c an</w>
ff ic
▁com p
ag e</w>
▁a n
ou ld</w>
▁( (</w>
uc h</w>
w i▁
▁d is
o▁ n
or e</w>
▁a b
w h
ea n</w>
es s
▁ u
ati ▁
e w</w>
s s
im e</w>
il l
ar e</w>
i f
▁sh all</w>
▁b ut</w>
▁& quot;</w>
▁Kor ea</w>
e l</w>
em ent</w>
o▁ r
a▁ n
e▁ d</w>
f ter</w>
s h
on ▁
ou r
an y</w>
▁r ec
ti c
in is
a us
ea d</w>
▁a d
r e▁
▁& qu
o g
ol l
em b
o t▁
i▁ n
t en
▁a p
ye ong
▁ t</w>
i b
in ce</w>
u ng</w>
a in</w>
k e</w>
▁i m
as t</w>
ea s
i t▁
u t
ou r</w>
o▁ t
an g</w>
en ce</w>
ou s</w>
in g
e y</w>
tr y</w>
e m</w>
ak e</w>
▁th ere</w>
▁w ere</w>
▁f ir
ou ▁
▁h e</w>
op le</w>
er v
▁W h
am e</w>
ar ▁
u n</w>
k s</w>
o d
f▁ or</w>
o▁t ;</w>
m e</w>
f or</w>
- ▁
▁t ime</w>
▁b ec
▁c l
▁e v
▁y ear</w>
e ople</w>
▁be en</w>
-▁ @</w>
es ti
▁a g
om e</w>
& qu
0 0</w>
por t</w>
ec t</w>
el y</w>
a m</w>
in e</w>
p r
cl ud
in▁ g</w>
g i</w>
p▁ os
▁f or
; s</w>
k ing</w>
▁i f</w>
▁I n
e f
oo d</w>
or ▁
▁o r
ati▁ on</w>
tur e</w>
ot▁ ;</w>
aus e</w>
ub l
pos ▁
an d
s tr
▁s aid</w>
@ -▁@</w>
▁al so</w>
a f
a d</w>
a ir
▁Kor ean</w>
t▁ o</w>
s ed</w>
th▁ at</w>
al ly</w>
▁r el
iti es</w>
ro v
igh t</w>
al l
for m
▁s o</w>
▁s uch</w>
b e</w>
a v
ar d</w>
▁wh en</w>
ati ons</w>
ati onal</w>
▁p r
q ▁u
▁d o</w>
id e</w>
▁the ir</w>
o▁ f</w>
▁the y</w>
o m</w>
▁a fter</w>
on e</w>
e▁ s</w>
▁p eople</w>
w▁ h
▁m ore</w>
i ve</w>
e en</w>
a e</w>
or s</w>
res id
en c
▁con t
o b
p ar
an▁ d</w>
▁K im</w>
@ ▁
e e
om m
ad e</w>
ur e</w>
an c
u l</w>
@▁ -@</w>
▁a t
e▁ c
b y</w>
▁ ot;</w>
u m</w>
e▁ r</w>
o▁ s
c or
ti v
t▁ h
▁th an</w>
y ▁
an s</w>
o on</w>
▁ab out</w>
ea l
▁p re
o o</w>
a ce</w>
pos ;</w>
t u
▁S e
il e</w>
i ke</w>
o in
os t</w>
er ▁
ab le</w>
▁G yeong
▁d i
u s</w>
i l</w>
us t</w>
▁m e
it t
▁2 0
ar k
el l</w>
▁& a
▁h ead</w>
d i
▁in v
e a▁
▁fir st</w>
ubl ic</w>
C h
▁ es</w>
▁com m
overn ment</w>
w o</w>
▁f ac
▁s tr
▁pro v
p en
an ag
ar t
▁Th is</w>
▁w e</w>
pos; s</w>
t▁ er</w>
▁h is</w>
re e</w>
▁o ut</w>
i▁ n</w>
d ed</w>
it h
n ing</w>
▁a r
ver s
es e</w>
e w
al ▁
ay s</w>
s ti
p res
p ol
▁m ay</w>
▁s ec
▁in clud
ev el
▁u p</w>
▁A c
▁con s
▁re g
an s
▁m y</w>
▁h el
al s</w>
ci al</w>
wi▁ th</w>
▁s up
l is
d us
▁s ub
▁on e</w>
▁in ter
m e▁nt</w>
t▁ ed</w>
▁m on
i ous</w>
s u
i p
d er
d is
▁p ol
ig n
ti▁ on</w>
ig h</w>
▁bec ause</w>
es t
g h
c rea
▁pro duc
or y</w>
s ec
▁Gyeong gi</w>
▁e m
K or
oo l</w>
rou gh</w>
&a p▁os
▁s p
us in
▁o ffic
g r
▁I f</w>
▁c oun
▁s ch
ur r
t or</w>
il ▁
or th</w>
it e</w>
ou l</w>
b l
ati ve</w>
as e</w>
e on</w>
o d</w>
o p</w>
b er</w>
i a</w>
▁i ts</w>
oo k</w>
ic al</w>
▁wh ere</w>
ti ons</w>
oc al</w>
a▁ s</w>
a w
a ve</w>
▁P ar
w as</w>
ti ci
S e
a il
▁per s
▁ac c
▁ h
▁A s</w>
ow n</w>
▁al l</w>
&▁ a
▁m e</w>
s ing</w>
l ec
s ion</w>
ill ion</w>
ic ▁
q▁u ot;</w>
o y
▁o ther</w>
▁ha d</w>
os e</w>
▁f in
▁G u</w>
▁q u
▁st ud
ol d</w>
▁g overnment</w>
s u▁
w▁ as</w>
▁@ -@</w>
m s</w>
d r
k ed</w>
ear s</w>
I n
et w
ea se</w>
por t
y st
pro v
▁d ue</w>
▁p os
e ed</w>
▁d ec
▁a m
a▁ t</w>
it s</w>
f r▁
K ▁
en d</w>
▁y our</w>
e b
at ing</w>
▁o p
p r▁
r ec
a▁ l
an n
u r</w>
▁W e</w>
▁on ly</w>
s es</w>
▁w ith
e▁r s</w>
ir ec
, 0
▁w on</w>
ti ve</w>
f er
▁l ea
g an
h ed</w>
▁p ublic</w>
▁Th ere</w>
v er</w>
▁o per
▁S t
▁m emb
j u</w>
in c
a▁ re</w>
o▁ r</w>
ing s</w>
▁p ur
s i▁
ac k</w>
th at</w>
▁t wo</w>
▁includ ing</w>
ac h</w>
▁th rough</w>
en ti
ou gh</w>
si b
ig n</w>
h e▁
a i▁
ul ar</w>
ul t</w>
w▁h o</w>
i ed</w>
el l
f ir
▁U n
s t▁
▁N orth</w>
ar ge</w>
r y</w>
i tion</w>
▁p res
▁l ast</w>
s pec
▁m at
▁d ay</w>
e h
tici p
gan iz
ec h
enc y</w>
▁un der</w>
▁in crea
f l
e ti
evel op
S .</w>
▁l ike</w>
j ect</w>
▁P rov
itt ee</w>
resid ent</w>
in k</w>
▁s m
i▁ ty</w>
r o▁
▁t ea
e▁ re</w>
s el
p h
▁f l
▁A r
S ▁
v ▁
ark et</w>
an ies</w>
i p</w>
m inis
et y</w>
▁w ould</w>
sti tu
▁k n
w h▁
wi▁ ll</w>
▁n um
t ly</w>
w ith</w>
2 0
v is
▁M inis
c er
a▁ n</w>
ou th</w>
il ity</w>
at es</w>
s s</w>
▁d r
en▁ t</w>
cor ding</w>
t ers</w>
▁d es
o▁ ng</w>
▁n o</w>
ex t</w>
il y</w>
esti g
ter n
▁n ew</w>
pos▁ ;s</w>
r el
en ter</w>
ff er
▁m any</w>
ol og
▁b u
i▁ ch</w>
i▁ c
et ro
▁20 1
ent ly</w>
id ed</w>
▁h igh</w>
▁&qu o▁t;</w>
is t
u g
fr▁ om</w>
it ed</w>
tr ▁
▁m anag
▁the m</w>
v i
ff ice</w>
▁Ch in
ri v
en d
i▁ s</w>
com p
i vers
▁s pec
e ther</w>
▁ex pec
▁Wh en</w>
en er
d o</w>
p on
a▁ c
▁m ed
▁s erv
▁num ber</w>
em s</w>
b e▁
ow ing</w>
▁ap p
▁d el
▁sh ould</w>
ti▁ ng</w>
ur ing</w>
w or
a▁ ll</w>
▁rec e
yst em</w>
ro w
un ▁
▁s c
k ▁
usin ess</w>
o▁ m
a▁ te</w>
ang e</w>
ic ation</w>
ab lis
e o
▁v is
ec ▁
v en
▁m ade</w>
if e</w>
ar g
u tion</w>
is e</w>
str uc
duc ation</w>
ap o▁s
▁s e
▁C omm
u p</w>
a▁ l</w>
j ▁
iz ed</w>
for e</w>
▁l ocal</w>
. S.</w>
etro pol
,0 00</w>
ec ess
ou nd</w>
et ing</w>
▁L ee</w>
f ac
▁&qu ▁ot;</w>
w on</w>
o▁n s</w>
ech n
▁comp anies</w>
▁g r
▁y ears</w>
p le</w>
ic es</w>
m an</w>
▁in to</w>
▁an n
us t
l l
d ay</w>
▁com pl
&ap▁os ;
m er</w>
▁Se oul</w>
▁hel d</w>
ev er</w>
a w</w>
ou s
rou nd</w>
i ons</w>
ti f
▁o ver</w>
▁c ar
▁H e</w>
d in
t▁ s</w>
con om
s c
as s
▁comp any</w>
ow er</w>
▁u se</w>
▁p h
i▁ al</w>
ac t</w>
▁T r
etw een</w>
▁e st
ul tur
t ro
r ap
at er</w>
&a▁pos; ▁s</w>
minis tr
s p
▁c r
on d</w>
an ts</w>
▁pro c
re a</w>
oc i
▁r ea
▁re qu
▁v ar
▁t ake</w>
▁m ake</w>
c▁ h
&▁ qu
▁wor k</w>
▁b etween</w>
er y</w>
▁f oll
▁ch il
s id
▁d o
▁b l
ti es</w>
▁b as
at▁ ion</w>
s ur
▁ex per
ver y</w>
▁ n
is ▁
o ve</w>
▁e ach</w>
em ▁
ud g
▁N ational</w>
▁sch ool</w>
y ing</w>
gh t</w>
▁th ink</w>
▁ap pl
▁sup port</w>
er e
▁st ar
P rov
c oun
▁in dus
h a▁
er g
com m
▁P resident</w>
el ec
& q▁uot;</w>
▁or der</w>
a u
in v
▁w ant</w>
▁m arket</w>
▁ev en</w>
▁t er
u al</w>
&a▁pos; ▁t</w>
ecess ary</w>
es ▁
iz e</w>
▁memb ers</w>
▁d ep
h▁ as</w>
▁par ticip
▁g o</w>
s a▁
j ec
▁wh ile</w>
▁d et
tic le</w>
on▁ al</w>
i e
▁b usiness</w>
el ▁
▁s ince</w>
i▁ on</w>
▁Ac cording</w>
&▁ quot;</w>
ou ng</w>
e ong</w>
n ot</w>
in d</w>
rou p</w>
f r
o▁ ut</w>
i▁ ce</w>
▁at ten
▁b r
▁Y ou</w>
m e
▁s u
v ir
▁inv estig
il ities</w>
ch ▁
pl ▁
▁U .S.</w>
&a pos;s</w>
▁pro m
ol ▁
ur es</w>
▁th ree</w>
w ill</w>
▁n ecessary</w>
h as</w>
▁tr ans
en g
▁f am
l i
wh i▁ch</w>
▁g et</w>
c ed</w>
▁g o
▁Prov ince</w>
▁&a pos;s</w>
1 ▁
▁be ing</w>
i als</w>
ay ing</w>
e▁ n</w>
m a▁
▁d on</w>
▁e ar
&▁a pos;</w>
o l</w>
t▁ h</w>
▁d evelop
d e</w>
▁w ell</w>
▁P l
▁c rea
at▁ ed</w>
▁res id
▁c oll
▁f e
▁J ap
&qu o▁t;</w>
u▁ r
▁s ystem</w>
s e▁
▁est ablis
is t</w>
▁g ood</w>
▁s ome</w>
▁D o</w>
ap p
▁Par k</w>
&qu ▁ot;</w>
b u
p re
▁A l
t a▁
i ence</w>
pl oy
t a
▁pers on</w>
▁in d
▁S h
▁a ss
ul ▁
y ear</w>
ou se</w>
u ation</w>
am p
▁expec ted</w>
▁per form
▁m a
e o</w>
▁e t
o k</w>
sib le</w>
▁&qu ot▁;</w>
▁c ould</w>
h er</w>
l i▁
e ed
w ay</w>
▁pl ace</w>
art ment</w>
tr ic
▁a m</w>
▁i ss
eas on</w>
re g
er m
▁s ur
▁p oin
▁n ext</w>
i▁ es</w>
▁Minis try</w>
form ation</w>
▁ al</w>
▁stud ents</w>
an▁ ce</w>
▁bu il
▁r em
d y</w>
▁an y</w>
an cial</w>
▁b el
▁o ur</w>
▁m ov
▁c as
e ts</w>
ak ing</w>
▁h ea
▁1 0</w>
▁d irec
s he</w>
ati o▁n</w>
▁E n
u▁ n
▁pol ice</w>
▁manag ement</w>
oun t</w>
i onal</w>
n am</w>
al e</w>
Kor e▁
▁O n</w>
▁n eed</w>
p p
▁ er</w>
▁or ganiz
▁m ost</w>
dr en</w>
▁c ase</w>
▁var ious</w>
b▁ ut</w>
un g
o ther</w>
▁ac tiv
an k</w>
tr ies</w>
▁) )</w>
m o▁
ab ▁
▁e conom
ain ed</w>
y e▁
on▁ g</w>
▁r a
▁g u</w>
i▁ t</w>
ti me</w>
▁offic ial</w>
▁re por
▁ex c
; t</w>
▁be fore</w>
▁d uring</w>
▁c er
G yeong
▁t a
▁g u
b e
▁tea m</w>
d iti
▁al l
▁s ame</w>
en s</w>
▁pro bl
▁Ar ticle</w>
▁Chin a</w>
om ▁
or t</w>
emb er</w>
t e▁
overn or</w>
▁c or
▁d ays</w>
our t</w>
vir on
p o▁s
▁h ow</w>
n o▁
iv ing</w>
r u
el d</w>
th ing</w>
▁u sed</w>
h o▁
pr o▁
tr ib
p▁ l
▁ann oun
s on</w>
▁F or
n ed</w>
▁m in
▁wh at</w>
▁a rea</w>
oo per
ff ▁
oc k</w>
d▁ er</w>
sh ip</w>
en▁ ts</w>
P ▁
i od</w>
o or</w>
i▁ s
▁cont in
ultur al</w>
oc ial</w>
▁e l
▁S outh</w>
h▁ is</w>
p s</w>
m ents</w>
olog y</w>
air s</w>
▁at t
as s</w>
▁m illion</w>
▁e ff
r ed</w>
it al</w>
▁w r
▁A t</w>
e ong
ic y</w>
&a▁pos; t</w>
af t▁er</w>
T he</w>
▁l ot</w>
p o▁r
ti o▁n</w>
ain ing</w>
▁pro ject</w>
ac ▁
▁di ffer
un d
▁n ow</w>
&qu ot▁;</w>
ch eon</w>
l es</w>
f rom</w>
▁a s
▁C on
op e</w>
C ▁
g u</w>
i um</w>
th is</w>
ul ture</w>
l e▁
o▁ ul</w>
▁s it
us ▁
A ▁
▁me eting</w>
▁e lec
▁ex pl
e x</w>
▁1 9
M ▁
▁s l
o o▁
K im</w>
si ve</w>
h is</w>
w n</w>
th er
▁di ffic
a▁r y</w>
ic s</w>
y p
m e▁
ib er
▁c urr
ivers ity</w>
t ain</w>
▁g ener
m is
o b</w>
▁v i
▁res pon
wh o</w>
▁a ff
f f</w>
s aid</w>
ear ch</w>
▁A m
o k
it an</w>
▁par tic
in▁ ce</w>
&a▁ pos▁;s</w>
▁con cer
▁l ong</w>
y ou</w>
iv ed</w>
f ul</w>
▁t ri
▁“ “</w>
▁mon th</w>
t ors</w>
m on
▁C ity</w>
▁h er</w>
K or▁
ag rap
▁pl an</w>
&a pos;</w>
▁con duc
▁wor ld</w>
▁P ro
▁f i
o ti
▁with out</w>
c .</w>
c ri
sel f</w>
▁A ss
com e</w>
od ay</w>
is m</w>
u▁ re</w>
▁kn ow</w>
o w▁
an t
▁rel ated</w>
th e▁
&a▁ po▁s
l ed</w>
is h
id ent</w>
rou ▁
ev ▁
m ed
m y</w>
l a▁
▁d em
▁in formation</w>
▁e ducation</w>
▁s al
&a▁pos; m</w>
r i▁
m ed</w>
anc es</w>
ow ed</w>
n▁ ot</w>
em e▁nt</w>
▁with in</w>
is h</w>
▁w ee
ha▁ ve</w>
c o▁
▁f u
▁a round</w>
s▁ t
▁sm all</w>
▁produc ts</w>
▁f r
ot al</w>
e t▁
▁Pl ease</w>
in d
s h▁
w ang
▁fac t</w>
▁ex p
▁foll owing</w>
om en</w>
▁partic ular</w>
en t▁
ic k
f o▁r</w>
is ion</w>
▁H y
c c
▁Comm ittee</w>
en tr
s an</w>
y m
2 ▁
d u
t ment</w>
▁s ee</w>
▁l arge</w>
▁serv ice</w>
it ing</w>
▁sec ond</w>
ac k
▁c ity</w>
al ity</w>
▁r ight</w>
▁re f
▁o ffice</w>
a▁ tion</w>
Se o▁ul</w>
▁j ust</w>
th ough</w>
▁ev ent</w>
en se</w>
U n
di tion</w>
ci l</w>
il it
ow s</w>
▁g row
K▁ or
▁o ut
h ave</w>
s erv
▁b o
a ir</w>
f i▁
a e
ab or</w>
▁c o
overn me▁nt</w>
al y
L ▁
▁ch ec
l▁ y</w>
▁indus try</w>
af ety</w>
Kor▁ ea</w>
struc tion</w>
k ers</w>
▁resid ents</w>
eal th</w>
h ere
s up
▁d id</w>
ati on
ent al</w>
▁O r
s▁ h
c us
por ts</w>
d e▁
▁pre v
ro w</w>
m it</w>
um p</w>
▁pr ice</w>
ul t
▁m uch</w>
e ign</w>
▁b ro
t▁h at</w>
for m</w>
▁h igh
i an</w>
▁f ood</w>
▁d e
▁cons id
ust om
▁Ac t</w>
▁m eas
ai▁ d</w>
▁M oon</w>
b ut</w>
ea l</w>
▁ p
▁l ife</w>
s ide</w>
all ed</w>
Kor ea</w>
er ing</w>
▁pro f
v en</w>
Kore▁ an</w>
▁spec ial</w>
ea s</w>
at t
▁s ol
a k</w>
& apo▁s
iti z
▁coun try</w>
ur ▁
re t
ag es</w>
▁be g
i k
▁cas es</w>
s l
▁increa se</w>
ati on▁al</w>
y ung</w>
s ung</w>
▁e nd</w>
i or</w>
▁s ti
es ted</w>
▁fac ilities</w>
as ▁
▁t otal</w>
l ine</w>
▁t echn
▁per iod</w>
b ▁e</w>
a p▁
ar ds</w>
e▁ x
v ing</w>
▁w ay</w>
▁m us
a z
at ely</w>
os p
h y
th s</w>
o▁ l
▁f il
▁A n
o i</w>
i e</w>
▁f un
▁ter m</w>
v es</w>
▁Th at</w>
ee p</w>
ati c</w>
g u
uc c
th▁ er</w>
iz ation</w>
ow ever</w>
tr ac
▁ma j
b een</w>
▁ th</w>
im es</w>
n er</w>
▁chil dren</w>
t▁ r
us e</w>
i g</w>
▁am ong</w>
an u
e▁ ss</w>
▁wh ether</w>
▁p op
ain st</w>
▁f ri
ot h</w>
a u▁
▁re port</w>
▁ex pen
here in
at a</w>
▁v ery</w>
▁r ate</w>
al f</w>
o p▁
▁in st
ch ed</w>
▁oper ation</w>
un ity</w>
ec tion</w>
m ak
▁r eal
a▁ ge</w>
pos e</w>
▁A fter</w>
▁o b
oo m</w>
b le</w>
C omm
▁h ear
or k</w>
ti l</w>
▁un der
air man</w>
▁g l
&a▁ pos▁
▁G overnor</w>
pl em
▁g rea
en▁ ce</w>
▁Par ty</w>
u te</w>
▁th ▁e</w>
in cial</w>
b u▁
agrap h</w>
el f
▁announ ced</w>
oc r
ac c
a▁ m
0 ,000</w>
▁f ound</w>
il▁ l</w>
▁b illion</w>
us an</w>
ot e</w>
M etropol
u th
▁produc t</w>
d ic
d i▁ng</w>
c r
z e</w>
▁ad v
t▁ y</w>
jec ts</w>
▁ch ang
ar t</w>
con ▁
▁pl ay
p ri
ak es</w>
ffic i
a ff
G ▁
ul ts</w>
ac h
it▁ an</w>
d i▁
ew s</w>
▁des ign
d en</w>
▁Wh at</w>
▁th ese</w>
u▁ c
▁o cc
▁e as
▁J e
▁G ang
▁investig ation</w>
y o▁
an ese</w>
iti ▁
▁S am
ar m
u ty</w>
og ether</w>
in es</w>
pres ent
▁th ose</w>
T ▁
▁g roup</w>
ep t</w>
ac hed</w>
l o▁
c ent</w>
▁proc ess</w>
n▁ d</w>
▁in stitu
is ed</w>
om e
▁re v
eas ed</w>
w▁ on</w>
. ▁
th a▁t</w>
w ard</w>
▁r et
r em
ut es</w>
an ding</w>
▁t al
ev el</w>
en s
l▁ ed</w>
▁E x
▁s aying</w>
a▁ t
▁et c.</w>
R W</w>
ol e</w>
o y</w>
▁in tro
a i</w>
▁develop ment</w>
▁for mer</w>
▁fin ancial</w>
▁w ater</w>
ar k</w>
▁d oc
h ib
od y</w>
t▁ ion</w>
▁H owever</w>
▁inv est
▁Al though</w>
▁r o
▁l oc
▁u s</w>
▁e very</w>
i▁ d
▁b udg
▁c enter</w>
igh ts</w>
s ch
w▁ ill</w>
p ly</w>
o▁n e</w>
i▁ l
N ▁
it▁ h</w>
▁s us
▁s ay</w>
▁mat ters</w>
c es</w>
▁cont ro
▁in ten
▁am ount</w>
▁perform ance</w>
in ter
▁U S</w>
i ev
er ▁s</w>
c o▁n
▁o pen
▁im port
in ation</w>
▁d ef
▁ex am
▁i d
ie f</w>
▁h im</w>
ob al</w>
m▁ an</w>
s ub
s ai▁d</w>
b▁ er</w>
K▁ im</w>
▁s ign
tic s</w>
▁u s
e▁c t</w>
en ds</w>
s um
▁ ot▁;</w>
▁com e</w>
he▁ ad</w>
▁repor ted</w>
▁ch arge</w>
u es</w>
▁pur su
enti al</w>
ur ity</w>
▁r eason</w>
▁diffic ult</w>
be▁ en</w>
d ers</w>
▁par ty</w>
v ed</w>
u ed</w>
▁s k
din ance</w>
in ed</w>
D ▁
▁ch ange</w>
▁par t</w>
d▁ ed</w>
▁n o
eg al</w>
ec u
▁ad ministr
ul l</w>
a▁n t</w>
ar ac
ec ted</w>
▁i t
er ed</w>
▁pro t
p ing</w>
▁bec ome</w>
u▁ l
n s</w>
w e▁
m en▁t</w>
▁fir e</w>
▁s ocial</w>
▁h ome</w>
riv ate</w>
etropol itan</w>
ou▁ ld</w>
m .</w>
i ver
emb ly</w>
ef t</w>
esti v
▁probl em</w>
an ds</w>
▁& q▁uot;</w>
in al</w>
▁st at
s e
▁t rea
▁ag ain</w>
m anag
l oc
▁fam ily</w>
▁con struction</w>
▁a ud
at ur
if ic
▁en ter
et ter</w>
r d</w>
ou ght</w>
tr ial</w>
ea t</w>
▁ag re
▁hel p</w>
pos; ▁s</w>
▁ad dition</w>
ev ant</w>
▁en tr
pl o
sa▁ id</w>
▁l o
ti c</w>
▁o ver
& q▁u
n ow</w>
▁h ere</w>
▁wor king</w>
▁b ack</w>
b▁ y</w>
on t</w>
esti c</w>
▁C enter</w>
f t
▁pro sec
s o▁
▁c ustom
▁F or</w>
c▁ an</w>
b e▁c
▁pro gr
▁Th ey</w>
p ed</w>
fer red</w>
▁offic ials</w>
oun d
▁pos sible</w>
▁s elec
ir e</w>
▁ ts</w>
H ▁
▁comp eti
▁prov ide</w>
▁J ae</w>
c an</w>
▁go ing</w>
▁ag ainst</w>
f▁ f
for m▁
▁M y</w>
rea s</w>
l s</w>
▁sh ar
▁wh y</w>
▁sit uation</w>
ov ▁
▁par agraph</w>
▁h um
▁s et</w>
▁coun tries</w>
s m
our s</w>
m▁ ent</w>
Metropol it▁an</w>
▁differ ent</w>
du ce</w>
S t
r▁ ed</w>
▁con fir
▁a uth
u▁ n</w>
▁sti ll</w>
f in
▁Jap an</w>
▁n ational</w>
ain s</w>
▁M ar
en ted</w>
c as
eh ic
ou▁ n
a▁ y</w>
20 1
▁d om
er ▁e</w>
▁m od
▁compl et
ir ed</w>
▁2 0</w>
A ss
▁p as
c a▁
▁u sing</w>
▁inter n
oin t</w>
ug g
▁Tr ump</w>
d le</w>
▁rece ived</w>
▁S ince</w>
▁th ▁
d ep
▁sal es</w>
B ▁
d ec
ul ation</w>
▁C oun
▁s im
s▁ ed</w>
iv es</w>
▁w at
n ess</w>
at ure</w>
▁d am
id ▁
ea m</w>
is ts</w>
i▁ ts</w>
o ol
▁rec or
p▁ le</w>
▁s he</w>
ig ▁h
tric t</w>
▁inter est</w>
▁m ain
▁th en</w>
oun ▁
▁Chin ese</w>
i o</w>
▁maj or</w>
▁B usan</w>
w o▁r
a▁ ng</w>
si a</w>
t o▁
▁d ata</w>
▁t oday</w>
k i▁ng</w>
duc ed</w>
▁mon ey</w>
ir ▁
w ere</w>
i o▁n</w>
ch ing</w>
▁p ower</w>
uc l
▁d own</w>
th▁ is</w>
▁c aus
▁J ung</w>
▁en viron
em ocr
▁P ol
▁3 0</w>
iv ▁
t▁ or</w>
▁c ap
▁an aly
vi ew</w>
w e▁re</w>
ea d
▁g ive</w>
pos ed</w>
air per
on ed</w>
ye ong</w>
▁import ant</w>
iv id
ri ed</w>
▁Sam sung</w>
▁in c
▁In tern
c t</w>
c o▁m
▁s er
▁e qu
▁memb er</w>
o tion</w>
lis h</w>
en ing</w>
▁bas ed</w>
▁dep artment</w>
▁rel evant</w>
is sion</w>
▁a reas</w>
▁m ain</w>
▁pre par
▁Minis ter</w>
r a▁
ov er</w>
rea dy</w>
▁for eign</w>
tr act</w>
a p</w>
▁res ult</w>
on ▁s</w>
▁meas ures</w>
i▁ t
ur n</w>
po▁r t</w>
u nd</w>
tr uc
sib ility</w>
▁p ay</w>
on y</w>
▁f our</w>
▁pursu ant</w>
▁p rivate</w>
o▁ us</w>
re a▁
elf are</w>
▁fu ture</w>
▁un til</w>
▁per cent</w>
▁p ay
am ▁
▁econom ic</w>
e▁ st</w>
b ec
i x</w>
▁c ame</w>
▁dec ided</w>
su▁ ch</w>
ex p
▁ n</w>
▁f ive</w>
ti ce</w>
ar s</w>
▁r oom</w>
t e▁r
ti▁ me</w>
a un
▁increa sed</w>
▁w omen</w>
▁l oo
▁v al
▁l ear
▁em ploy
▁Un iversity</w>
▁b est</w>
▁att ached</w>
ilit ary</w>
▁l im
▁h ol
▁Jap anese</w>
▁w in
G overnme▁nt</w>
ev en</w>
C h▁
in clud
▁Wh ere</w>
▁h ope</w>
▁t imes</w>
a il</w>
▁A n</w>
h i▁
el s</w>
h av
▁G wang
estiv al</w>
▁ab le</w>
▁chec k</w>
is ing</w>
▁t ogether</w>
▁med ia</w>
n o</w>
J ▁
o s</w>
ver y
▁O n
res s</w>
e ir</w>
con t
▁budg et</w>
▁ear ly</w>
p e</w>
itiz ens</w>
th▁ ey</w>
▁n eed
▁n eg
v ▁e</w>
f o▁r
▁Or dinance</w>
pro duc
E n
▁s um
▁in spec
▁w ar
▁exper ience</w>
▁ st</w>
wh▁ en</w>
re d
am es</w>
f o▁
a fter</w>
▁t oo</w>
p o▁
n▁ g</w>
▁t em
as ter</w>
g r▁
y▁ ou</w>
▁comm ittee</w>
▁res ults</w>
▁atten tion</w>
ir d</w>
it▁ y</w>
▁gener al</w>
tur es</w>
m it
▁pur pose</w>
▁h alf</w>
ep ar
is tr
▁im prov
at eg
▁t ook</w>
▁vis it</w>
▁ta x</w>
p a▁
0 th</w>
▁c ulture</w>
▁b ur
▁En g
es ts</w>
o h
▁s ome
▁w ea
▁activ ities</w>
▁do es</w>
▁pl ans</w>
&▁qu o▁t;</w>
al▁ so</w>
▁p ic
d es
▁l aw
m in
c al</w>
▁m ust</w>
s▁ o</w>
un ic
n ew</w>
er ation</w>
pos ition</w>
id n</w>
a in▁
▁rea l</w>
A r
o ffic
g s</w>
ub l▁
u le</w>
in dus
ay or</w>
w il▁l</w>
▁l eft</w>
▁sur v
ex ▁
▁g ame</w>
▁&a pos;</w>
▁op in
ic▁ h</w>
e e▁
n e▁
re qu
▁tr ad
il i
a th
. m.</w>
and id
▁grea t</w>
id dle</w>
iti ▁es</w>
▁s ucc
or ity</w>
i▁n e</w>
▁r ul
l▁ d</w>
▁l evel</w>
▁y oung</w>
▁p ast</w>
oc ▁
t▁ ry</w>
▁cons um
b as
▁S up
▁st and
y s</w>
▁c ol
▁c ooper
r ic
ib le</w>
▁F in
el f</w>
▁ex pres
w a▁s</w>
L ee</w>
or▁ th</w>
▁wee k</w>
▁s afety</w>
▁en j
or ganiz
a▁n y</w>
▁w ent</w>
▁p aid</w>
ye es</w>
th▁ an</w>
▁l ow</w>
▁H ow</w>
w ays</w>
▁j ob</w>
▁u r
▁ph ot
E O</w>
t or
▁E ducation</w>
m ore</w>
1 9
i▁ g
▁mat er
▁h ard</w>
y e</w>
▁fin d</w>
the▁ ir</w>
yo▁ u</w>
▁s ite</w>
▁S ec
▁m ar
ann ot</w>
is si
▁expen ses</w>
l ike</w>
▁c iv
▁prov ince</w>
▁requ est</w>
ool s</w>
b r
no▁ t</w>
sh a▁ll</w>
ar ed</w>
C ▁h
▁E ven</w>
▁pl ease</w>
▁dom estic</w>
▁buil ding</w>
us ed</w>
res ▁
h▁ er</w>
d r▁
▁s end</w>
▁o ff</w>
▁vi ol
▁c ar</w>
▁h ouse</w>
e▁ m
p▁os ;s</w>
per ▁
▁st or
ear ▁
ti s
i al
▁iss ue</w>
on om
ir st</w>
▁pol icy</w>
▁S erv
p re▁
e et</w>
▁v id
fir ▁st</w>
d irec
th ers</w>
▁t our
▁A d
u▁ ng</w>
h ead</w>
▁n ame</w>
▁N ew</w>
in a</w>
a▁ r</w>
at ten
▁v ehic
en ter
w e</w>
a ther</w>
un▁ g</w>
K o▁
iz ▁ed</w>
▁pur ch
s y
ati o▁ns</w>
▁pres cri
e duc
▁h ou
▁fe el</w>
▁l abor</w>
▁ch arac
is ting</w>
▁m aking</w>
ar ding</w>
▁det erm
ab▁ le</w>
▁b rea
at or</w>
l ea
g o</w>
▁c alled</w>
0 s</w>
ar ▁e</w>
▁re p
▁f oc
▁re present
ti c▁
tr on
▁h ours</w>
▁W ith</w>
z ed</w>
ubl▁ ic</w>
id es</w>
▁techn ology</w>
ul ly</w>
▁K RW</w>
▁s ing
▁on ce</w>
▁sub sid
et t
▁20 0
ad ▁
▁h ist
2 0</w>
d ong</w>
▁o w
▁aff airs</w>
y u</w>
ie ve</w>
▁sh ow</w>
▁wor kers</w>
eo p▁le</w>
or m
▁v ol
▁ev al
l ing</w>
as te</w>
▁pro jects</w>
l ▁e</w>
ir c
h a▁s</w>
▁se ems</w>
em ents</w>
▁D a
▁curr ent</w>
rou▁ gh</w>
▁m or
▁C om
▁app ly</w>
h ▁e</w>
▁rece ive</w>
▁W or
si an</w>
u k</w>
d en
▁c ou
▁em erg
oci ation</w>
f am
b ed</w>
▁dis cus
s p▁
t wo</w>
ac es</w>
ye▁ ar</w>
i e▁s</w>
P ro
t e▁d</w>
st ud
es si
▁b ea
at▁ e</w>
plo yees</w>
ous ly</w>
▁rel eased</w>
op er
▁appl ication</w>
ar▁ ty</w>
enc es</w>
i f</w>
▁t yp
▁al ready</w>
▁a ut
▁l ik
s ure</w>
▁p ut</w>
pos▁ ;</w>
▁R es
y o</w>
sur ance</w>
▁prosec ution</w>
tic al</w>
ess es</w>
▁ex ch
ag ▁
1 0</w>
v i▁
▁su per
l▁ l</w>
5 th</w>
▁c ri
▁expl ained</w>
e▁ ly</w>
▁c os
▁pay ment</w>
s▁ t</w>
ent ary</w>
at▁ ional</w>
as h
O r
ac tiv
oo ds</w>
l d
▁fr ont</w>
iv en</w>
▁M etropolitan</w>
s▁ on</w>
d o▁
ch ool</w>
erg y</w>
ti m
▁con c
for ▁
a▁n s</w>
▁prov incial</w>
oci ety</w>
▁s w
i qu
▁med ical</w>
ro▁ m</w>
▁c ultural</w>
em ony</w>
un e</w>
f ri
▁C ourt</w>
▁in t
b o
▁d ate</w>
e a▁r
▁o wn</w>
▁l ook</w>
ret ary</w>
re en</w>
wh▁ o</w>
re fer
▁D ec
R ▁
p▁ ro
▁res earch</w>
e▁ l
▁l aw</w>
▁conduc ted</w>
e er</w>
e▁ t</w>
p ur
p a▁r
7 th</w>
▁re ferred</w>
▁c annot</w>
s w
og n
▁c our
▁Ass embly</w>
▁star t</w>
m at
all s</w>
▁mon ths</w>
h igh</w>
▁pr ices</w>
l ess</w>
8 th</w>
▁& apo▁s
▁im plem
C on
▁h ealth</w>
ous eh
Se oul</w>
ar i
in s
▁poin t</w>
tu al</w>
▁m ilitary</w>
g er</w>
stitu te</w>
ig▁h t</w>
an ks</w>
▁gl obal</w>
▁g ot</w>
tif ic
3 ▁
▁mus ic</w>
w ang</w>
u ally</w>
amp ;</w>
im ▁
▁b ody</w>
▁ha pp
▁v ic
au▁ se</w>
▁m an
mo▁ re</w>
▁str ong</w>
u b</w>
▁invest ment</w>
▁D is
▁sch ed
▁pl an
▁grow th</w>
al▁ l</w>
airper son</w>
ati▁ ve</w>
▁s en
▁f ree</w>
fr as
Prov in▁ce</w>
o ff
4 th</w>
▁O ffice</w>
um ▁
▁se ver
▁Ch airman</w>
pro ve</w>
▁ac cording</w>
it t▁
em or
▁rec omm
osp ital</w>
g y</w>
or row</w>
▁p ri
s ol
er c
n ov
▁tr av
es t▁
e es</w>
▁me th
itt le</w>
&a▁pos▁ ;t</w>
▁u n</w>
▁G overnment</w>
k er</w>
▁S o</w>
ex pec
com pl
▁Eng lish</w>
y ang</w>
▁a v
ul ar
ati s
▁cor por
es s▁
c▁ ed</w>
l ast</w>
al so</w>
a▁r d</w>
ou▁ r
▁c are</w>
em p
▁I s</w>
▁me ans</w>
▁str eng
med i
N ation▁al</w>
▁b oth</w>
▁Pol ice</w>
i ally</w>
en e</w>
▁f ull</w>
tr ans
N or▁th</w>
wh ich</w>
d▁ s</w>
▁d iv
▁pol iti
inc ▁e</w>
. 5</w>
ta ur
comp an
al▁ ly</w>
▁c ourt</w>
ig h▁
trib u
en ef
ai▁ r
p e▁
d el
▁l aun
▁agre ement</w>
▁op en</w>
▁Ch oi</w>
▁m is
iv er</w>
g over
d▁ uc
▁ta x
▁cl os
▁P r
▁l ess</w>
a im
anu fac
n i▁ng</w>
▁c ost</w>
▁p er</w>
▁R ep
▁B ut</w>
refer r▁ed</w>
▁C an</w>
c ement</w>
▁gr ad
f i
es ter
ay ▁
▁h ar
▁st ate</w>
▁l et</w>
▁ex hib
▁S u
l o
ess ed</w>
is es</w>
e on
▁et c</w>
▁a f
▁H ong</w>
1 st</w>
▁D ep
d▁ ue</w>
▁o ld</w>
▁econom y</w>
c l▁
▁i ll
▁under st
▁Th en</w>
b usin
ang u
3 0</w>
ep t
duc tion</w>
▁l ive</w>
▁b ig</w>
p e▁r
am s</w>
▁serv ices</w>
r a
er al</w>
▁th ings</w>
▁s ide</w>
▁c itizens</w>
p▁ er
o▁r s</w>
n ers</w>
bu▁ t</w>
u ro
ail s</w>
o▁r y</w>
c y</w>
&qu ▁ot▁;</w>
▁F r
d ance</w>
c t
20 ▁
▁ag ency</w>
▁In cheon</w>
▁as ked</w>
▁M ay</w>
▁wh ▁
pro f
▁pro per
a▁l s</w>
M inis
▁l iving</w>
▁d idn</w>
▁t ak
▁m ark
ti o▁ns</w>
5 0</w>
▁t op</w>
6 th</w>
Gyeong ▁
un t
▁Un ited</w>
▁Wh ile</w>
ov ▁er</w>
m or
ail ed</w>
herein aft▁er</w>
i▁c t</w>
p er</w>
ch er</w>
▁a ▁s</w>
w it▁h</w>
▁p ubl
ic t</w>
▁em ployees</w>
▁s epar
er n
en t▁s</w>
W e</w>
0 ▁
▁h and
o ice</w>
j in</w>
▁star ted</w>
▁direc tor</w>
▁vid eo</w>
▁establis h</w>
u ly</w>
▁g overn
▁& ▁
bu k</w>
d▁ o</w>
▁environ ment</w>
im um</w>
▁hum an</w>
et ting</w>
▁p en
ft en</w>
ti onal</w>
wor k</w>
pr▁ o
▁a w
on es</w>
e▁ on</w>
ym p
▁particip ate</w>
om s</w>
▁Coun cil</w>
t ain
▁me et</w>
▁tr ade</w>
▁l ove</w>
▁t est</w>
▁b ook</w>
▁selec ted</w>
▁prov ided</w>
air m▁an</w>
n el</w>
i▁ le</w>
re f
▁produc tion</w>
▁c anc
m ark
I t</w>
&a▁pos; ▁
▁establis hed</w>
la▁ st</w>
K▁or ean</w>
▁H an
g▁ u</w>
&▁qu ot▁;</w>
m ing</w>
▁b oo
▁l ed</w>
er ic
▁app oin
e ung</w>
▁kn own</w>
C om
▁m an</w>
F ▁
▁S ome</w>
ess ion</w>
um ents</w>
fras truc
▁1 5</w>
at ory</w>
&▁qu ▁ot;</w>
▁ f</w>
P ar
▁fi eld</w>
▁del iber
d e
resid e▁nt</w>
▁rec ently</w>
▁ad diti
a▁ b
p are</w>
m o
▁R eg
▁lik ely</w>
ob s</w>
e▁ s
a▁ ce</w>
ay ed</w>
ess or</w>
▁Y es</w>
▁mov ie</w>
en t▁er</w>
▁an other</w>
▁a way</w>
o▁ re</w>
ob ile</w>
▁chil d</w>
y n
p ic
▁establis h
c▁ h</w>
▁crea te</w>
ab ility</w>
ill age</w>
ur ch</w>
g et</w>
a▁ g
ec ts</w>
eal ed</w>
▁s oon</w>
▁acc oun
▁Serv ice</w>
u▁ s
▁D ong</w>
▁acc ident</w>
L▁ ee</w>
▁e very
▁1 00</w>
▁bec ame</w>
&a pos▁;s</w>
▁pers ons</w>
w▁ ith</w>
iti onal</w>
▁tr aining</w>
ul ations</w>
▁administr ative</w>
&ap▁os ▁
▁con tract</w>
ill s</w>
eo k</w>
e ff
▁cer emony</w>
▁s ent</w>
in t
ud ▁
pro c
m ost</w>
▁J ong</w>
o▁ w
hav ▁e</w>
▁confir med</w>
▁h old</w>
i▁ ll
entr al</w>
▁sub ject</w>
▁In dus
ex per
ou ▁t</w>
▁prev ent</w>
▁pl ay</w>
re v
▁poin ted</w>
T r
; m</w>
eg ▁
e qu
▁competi tion</w>
▁M ayor</w>
fer ence</w>
iz ing</w>
▁pop ular</w>
al k</w>
w an</w>
▁or ig
em ed</w>
▁stud y</w>
Gyeong▁ gi</w>
▁f ine</w>
▁con diti
▁me an
d▁ ay</w>
ther n</w>
▁open ing</w>
▁pr in
▁p resident</w>
o▁ on</w>
▁n ew
he▁ ld</w>
em e</w>
▁organiz ations</w>
▁dr am
g o▁
▁progr am</w>
pri l</w>
c▁ l
▁Je ju</w>
all ing</w>
c o
▁dem and</w>
ent ation</w>
is hed</w>
f▁ or
▁sch ools</w>
▁S p
re es</w>
▁fl oor</w>
▁beg an</w>
ci es</w>
in ess</w>
h ad</w>
ur i▁ng</w>
e um</w>
&apo▁s ;s</w>
d u▁c
b an</w>
ti l
ot ing</w>
▁B r
y our</w>
i et
c ar
w or▁
in ten
▁w a
n▁ ed</w>
b o▁
▁b etter</w>
eg e</w>
▁dam age</w>
ch es</w>
oc k
ag ed</w>
▁t ▁
▁a ir
m emb
A ct</w>
▁c ause</w>
f er</w>
▁o ften</w>
bu il
▁probl ems</w>
h▁ ad</w>
c▁ on
t ory</w>
▁par ents</w>
▁pr ac
om orrow</w>
▁l ate</w>
▁t aking</w>
f oll
an k
ti▁ ve</w>
ip ment</w>
r is
rea d</w>
l ocal</w>
ic▁ al</w>
▁al ong</w>
o▁ p
▁in come</w>
▁mor ning</w>
▁ex ecu
mit ted</w>
g ency</w>
th an</w>
Kor ean</w>
or por
ch ers</w>
w ▁e</w>
con s
▁pre dic
par ticip
▁sp ace</w>
s it
P a▁r
E ▁
▁st ock</w>
▁E lec
▁th ought</w>
▁p ati
▁th ird</w>
ic ies</w>
▁t ur
w ith
e o▁
as ed</w>
▁trea tment</w>
▁loc ated</w>
▁res taur
▁l ine</w>
e p</w>
mis sion</w>
g o
▁T o</w>
▁s elf</w>
ill i▁on</w>
em b▁er</w>
▁n ight</w>
▁m iddle</w>
t u▁
; ▁s</w>
&a pos;
▁u p
▁im prove</w>
▁con ven
m eas
▁caus ed</w>
ill ed</w>
▁pre pare</w>
G u</w>
▁cl ass</w>
on al
ed ly</w>
▁min utes</w>
urr ed</w>
includ i▁ng</w>
▁Y oung</w>
d et
▁p at
th r▁
ati▁ ng</w>
r .</w>
g est</w>
▁institu tions</w>
▁ind ivid
h o</w>
ec ause</w>
▁K ang</w>
im in
ot el</w>
as t
n▁ ew</w>
S h
▁al ways</w>
▁5 0</w>
s is</w>
ail y</w>
▁contin ue</w>
▁exper ts</w>
inv estig
m an
ver age</w>
e f</w>
▁l arg
th rou▁gh</w>
p ubl▁ic</w>
▁In stitute</w>
v y</w>
anc ▁e</w>
▁vis ited</w>
▁t ell</w>
▁des ign</w>
if ication</w>
▁qu ality</w>
rel at▁ed</w>
a▁ me</w>
▁a ge</w>
▁c ard</w>
ex c
d evel
f t</w>
ld n</w>
en ess</w>
▁intern ational</w>
▁1 2</w>
▁Mar ch</w>
t echn
l and</w>
ic ▁e</w>
▁sh ort</w>
▁D emocr
▁inspec tion</w>
▁o vers
▁con n
▁lea st</w>
▁comm unity</w>
id ents</w>
ci ence</w>
G ang
▁chang ed</w>
a▁n ce</w>
▁v er
▁g iven</w>
iti▁ on</w>
&a▁po▁s ;s</w>
▁Gwang ju</w>
e▁r y</w>
▁ch arg
▁organiz ation</w>
▁n atur
▁a ir</w>
▁d ri
ap er</w>
ib r
J ap
▁bro ad
▁res ol
rem e</w>
▁l os
c ooper
m a
cl os
▁auth or
or ts</w>
▁no tif
▁f ar</w>
i▁ n▁g</w>
▁s em
▁in fl
e▁ en</w>
i▁ m
itt en</w>
▁1 1</w>
ro ss</w>
res pon
i b▁
id ing</w>
id ay</w>
ch il
ad v
wh e▁re</w>
o th
▁r is
▁additi onal</w>
w▁h ich</w>
▁l ittle</w>
d em
▁sh owed</w>
c oll
o g▁
it al
▁w elfare</w>
▁Wor ld</w>
ow n
▁hist ory</w>
cl es</w>
▁c andid
b or
t▁ e</w>
▁st age</w>
e d▁
▁in surance</w>
▁Ch o</w>
w o▁n</w>
▁fe es</w>
g ue</w>
▁b enef
at ors</w>
▁re vis
anufac tur
▁st ore</w>
ound ation</w>
es ▁s</w>
▁St ates</w>
iti ve</w>
▁sec urity</w>
▁S he</w>
ou▁ nd</w>
▁ex isting</w>
▁c irc
▁ad ded</w>
e k</w>
▁b us</w>
▁an y
▁o ff
if ied</w>
▁con f
▁appl ied</w>
itt▁ ee</w>
▁T a
▁Comm ission</w>
p tion</w>
▁l ater</w>
▁j udg
h▁ ave</w>
▁n ews</w>
p o</w>
em ploy
per s
d evelop
eg r
ac y</w>
f ied</w>
ap e</w>
an ted</w>
it er
▁play ers</w>
▁direc tly</w>
▁1 0
▁For m</w>
i▁ ll</w>
r up
m os
ou t
in king</w>
und ai</w>
au gh
▁pers on
▁enj oy</w>
▁l and</w>
c are</w>
Gyeong gi</w>
&q▁u o▁t;</w>
▁1 1
▁prev ious</w>
▁rec ogn
oc c
ab o▁ut</w>
▁val ue</w>
our ces</w>
us tice</w>
r▁ es
ter ed</w>
qu art
▁prom ote</w>
▁ap prov
p eop▁le</w>
▁ha ving</w>
e▁ nd</w>
an▁ g</w>
ic k</w>
▁n on</w>
▁bas ic</w>
u▁ st</w>
in der
▁B ecause</w>
▁real ly</w>
▁a n▁d</w>
▁Am ong</w>
ad em
si▁ on</w>
ea th</w>
y ou▁
ministr ation</w>
▁surv ey</w>
▁s ociety</w>
sl and</w>
▁d eb
▁at trac
▁G roup</w>
ear ed</w>
g ed</w>
ann oun
▁bu y</w>
▁Am eric
▁complet ed</w>
▁Prov ided</w>
ea ce</w>
▁b or
aff ic</w>
▁” ”</w>
a▁r s</w>
▁tak en</w>
▁ac cor
i on
j ur
▁f ans</w>
vers y</w>
g en
o o▁n</w>
▁mater ials</w>
t ak
d ent</w>
▁Intern ational</w>
ye on</w>
un d▁er</w>
Y ▁
▁for m
▁fin al</w>
▁fri ends</w>
tiv ely</w>
H y
e y
▁op port
&ap▁os ;s</w>
o▁n g
e ans</w>
S ec
▁h ouseh
▁d ev
E x
af e</w>
▁wor ks</w>
▁k eep</w>
O ▁
ati ves</w>
▁ev ents</w>
s us
▁j oint</w>
ic ial</w>
▁h om
▁f ea
t▁ wo</w>
pl ac
c▁ om
▁fun ds</w>
ucl ear
▁On e</w>
▁E m
th em</w>
▁f ace</w>
af f</w>
▁high er</w>
▁s ix</w>
s ite</w>
▁m ove</w>
▁fac ility</w>
rou ps</w>
▁F irst</w>
om an</w>
▁custom ers</w>
c le</w>
▁ 00</w>
h▁ ed</w>
W ▁
▁th ough</w>
c▁ es</w>
▁a ch
▁represent ative</w>
▁s eason</w>
S▁ e
th ey</w>
n am
ob er</w>
b ro
ip s</w>
s uch</w>
por ted</w>
angu age</w>
▁o thers</w>
▁employ ment</w>
▁for m</w>
▁conditi ons</w>
▁particip ated</w>
o▁ ol</w>
c i▁
e ep
▁R us
▁L et</w>
▁ro ad</w>
il ar</w>
▁vic ti
on▁ ly</w>
▁en g
▁n ear</w>
s▁ uch</w>
▁Ass ociation</w>
loc ▁al</w>
▁sup ply</w>
id ence</w>
a▁ ti▁on</w>
▁ra ised</w>
n ext</w>
d ef
rec e
or din
▁s ize</w>
▁overs eas</w>
li er</w>
▁l ead</w>
en cies</w>
com p▁
▁trad itional</w>
▁s o
per form
em ale</w>
olog ical</w>
st▁ em</w>
el t</w>
re w</w>
ar d
e igh
ap pl
frastruc ture</w>
e an
▁offic er</w>
▁bec om
str ▁
qu ▁
w ell</w>
▁c all</w>
▁H ouse</w>
▁ap pro
o th▁er</w>
it▁ ed</w>
form▁ er</w>
▁pos sibility</w>
u▁ m
▁ag o</w>
▁activ ely</w>
▁civ il</w>
ea k</w>
ee k</w>
▁ret urn</w>
▁eff ect</w>
c r▁
▁reg ion</w>
J e
▁wh i▁ch</w>
j e▁ct</w>
▁Fin ancial</w>
i▁ c</w>
▁m akes</w>
th e▁re</w>
o es</w>
e▁ v
a ud
▁exhib ition</w>
w it
▁streng th
▁n ever</w>
t e▁r</w>
▁exch ange</w>
si ons</w>
ti al</w>
i▁ ed</w>
▁tr y</w>
▁contro l</w>
ot ed</w>
▁p ass
▁dr aw
o i▁n
▁rul ing</w>
▁rec ent</w>
▁dec ision</w>
i er</w>
▁sh are</w>
ur al</w>
ex p▁
ex ual</w>
J ae</w>
re h
▁sub mit</w>
a▁ tio▁n</w>
es n</w>
el ing</w>
a▁ n▁d</w>
▁ex ten
▁it ems</w>
e▁n ts</w>
n eg
▁A pril</w>
ul d</w>
e▁ e</w>
C oun
ati v
▁atten ded</w>
t on</w>
pl ace</w>
anc ed</w>
ag n
▁r ights</w>
▁en ti
rec ▁
▁fri end</w>
▁conduc t</w>
▁f ur
▁ar res
red it</w>
eg u</w>
▁stud ent</w>
c s</w>
▁A b
▁ph one</w>
ro ad</w>
▁c al
▁g o▁
es ting</w>
b ur
on▁ g
ea ch</w>
▁cour se</w>
ul a</w>
pl ▁e</w>
▁eas y</w>
ig ▁
▁oper ating</w>
inder g
in t▁
&a▁ p▁os;s</w>
W ▁e</w>
▁im p
▁doc uments</w>
▁accor dance</w>
▁J uly</w>
em▁ ent</w>
c our
a▁ d
der ed</w>
it ors</w>
ud e</w>
a ther
ver ▁
▁respon se</w>
a▁ s
▁acc ount</w>
▁a verage</w>
il ies</w>
▁i ▁s</w>
▁E uro
▁wor ds</w>
▁i ▁n</w>
▁neg oti
▁fun c
▁increa sing</w>
u ment</w>
▁cos ts</w>
▁J une</w>
com ▁
▁Democr atic</w>
ec h</w>
d▁ ing</w>
▁eval uation</w>
▁d u
▁D ong
d own</w>
▁appl ic
▁vol unt
▁oper ate</w>
&q▁u ot▁;</w>
▁lea ve</w>
port ation</w>
▁o ▁f</w>
p op
i ety</w>
trib ution</w>
▁op position</w>
▁b usin
f e</w>
▁cooper ation</w>
and ed</w>
▁St ation</w>
A d
▁qu esti
▁hou sing</w>
us ing</w>
o h</w>
e▁ a</w>
▁h ospital</w>
ag ▁e</w>
▁author ities</w>
o▁ me</w>
▁plan ning</w>
w a</w>
▁w ar</w>
▁Sup reme</w>
un ication</w>
&ap▁os; l▁l</w>
en ding</w>
ar▁ ge</w>
▁&a pos;▁s</w>
ept ember</w>
el eb
▁@ -▁@</w>
R es
▁dec rea
▁d eg
in▁ to</w>
U .▁
ph as
u▁ t</w>
▁e ffici
ar▁ y</w>
m ov
▁sign ific
m ental</w>
▁s een</w>
▁m inis
▁f ew</w>
▁comp ared</w>
pl ay
ic i
▁Sh in</w>
v ice</w>
▁&a pos▁;s</w>
▁tem per
es tion</w>
▁e r
▁ar t</w>
▁Hy undai</w>
▁r eas
u t▁
e▁n ce</w>
&a pos;▁s</w>
i▁ ve</w>
▁B l
▁lea der</w>
▁grow ing</w>
er▁ al</w>
▁g en
▁emerg ency</w>
ct ober</w>
▁p ain
is ter</w>
▁trav el</w>
▁hear d</w>
an▁ t</w>
▁some thing</w>
o▁ se</w>
▁p us
tron ics</w>
▁st ory</w>
r▁ e
if t</w>
g ood</w>
▁r un</w>
ear ly</w>
▁re view</w>
u k
ec on
ov e▁r
er n</w>
a g</w>
▁prom otion</w>
w▁ ay</w>
▁r ole</w>
p▁ ol
e▁ t
▁ex tr
y s
▁pos ition</w>
a▁c t</w>
▁e at</w>
c al
▁tri al</w>
fir st</w>
T h
P ark</w>
ep end
ar m</w>
▁elec tion</w>
es ▁t</w>
us tr
d on
▁1 st</w>
▁d ust</w>
for t
a▁c k</w>
ou r▁
i x
th y</w>
S e▁
il▁ l
ven tion</w>
a▁ p
us ted</w>
uc ▁
t u▁re</w>
▁sec tor</w>
▁ra ther</w>
b all</w>
▁includ e</w>
ultur ▁al</w>
▁tr illion</w>
cl us
c o</w>
te▁r m</w>
ap p▁
▁dis p
s▁ ec
en ded</w>
▁S chool</w>
en▁ cy</w>
▁diffic ul
▁rev ealed</w>
▁bel ieve</w>
▁im medi
P ar▁ty</w>
▁adv ance</w>
▁wr itten</w>
▁inv ol
▁out side</w>
▁as k</w>
U.▁ S.</w>
is is</w>
▁indus trial</w>
▁r un
▁j oin
s▁ es</w>
if ic</w>
▁N o</w>
▁intro duced</w>
oun tain</w>
▁cl ose</w>
▁politi cal</w>
▁Y oon</w>
ma▁ de</w>
▁cl as
dis ▁
▁b ir
h n</w>
▁purch ase</w>
▁m en</w>
▁Tr ans
20▁ 1
▁l eg
s en
▁reg ular</w>
rel ▁
2 nd</w>
▁f estival</w>
s▁ he</w>
ish ing</w>
oun ds</w>
K▁or ea</w>
pl es</w>
&▁ apo▁s
s▁ aid</w>
i j
Pa▁r k</w>
▁g roups</w>
ff airs</w>
un der
p eople</w>
pos al</w>
herein after</w>
D is
▁u su
▁prepar ed</w>
▁str uc
▁meth od</w>
▁B ank</w>
j o▁
wor k
g▁ et</w>
g overnme▁nt</w>
ev▁ el</w>
l aw
in ing</w>
c ap
▁w age</w>
quart ers</w>
o .</w>
ev▁ en</w>
ef ul</w>
in crea
▁res pec
▁M any</w>
ug ust</w>
spec ially</w>
▁pol icies</w>
▁l ower</w>
th eir</w>
f e▁
▁sh ows</w>
▁m ess
▁j obs</w>
▁t omorrow</w>
l ar
a i▁n
op ping</w>
▁Pr ime</w>
ar r
ec tive</w>
a▁ use</w>
inc l▁
eb ru
▁l egal</w>
▁need ed</w>
▁cont ents</w>
▁d en
anu ary</w>
n um
▁d aily</w>
▁bel iev
▁4 0</w>
enc ed</w>
▁k ey</w>
▁1 2
▁s old</w>
og rap
▁id enti
▁establish ment</w>
▁s ugg
pl ement</w>
ye a▁r</w>
▁crea ted</w>
ti▁ ons</w>
▁sever al</w>
etw e▁en</w>
on ▁e</w>
h eld</w>
▁loo king</w>
▁dis ab
l iv
▁c ities</w>
▁m anufactur
ir ect</w>
▁f av
ou▁ th</w>
▁t old</w>
▁curr ently</w>
▁opin ions</w>
u▁ p</w>
i o▁ns</w>
compan i▁es</w>
iqu e</w>
en ti▁
▁ ation</w>
▁us ers</w>
g re
d ro
▁th a▁t</w>
m any</w>
▁d ro
. 3</w>
g round</w>
▁vehic le</w>
ch airm▁an</w>
con c
t al
ell ing</w>
3 rd</w>
▁need s</w>
op s</w>
ex pl
▁concer ning</w>
on ly</w>
▁prof essi
▁equ ipment</w>
▁P ublic</w>
wh en</w>
at▁ ic</w>
▁spec ial
▁administr ation</w>
ail able</w>
▁l anguage</w>
ick ly</w>
or t
a▁ ys</w>
ar ter</w>
▁deliber ation</w>
▁Gang won</w>
k n
▁com b
▁happ y</w>
▁cl ear</w>
▁D ae</w>
▁develop ed</w>
▁L and</w>
a▁n g
▁r ise</w>
i very</w>
▁phot o</w>
riv ing</w>
ot t
▁an sw
▁f arm
▁iss ues</w>
▁med ium</w>
▁Ch ung
. 2</w>
u▁ d
e el</w>
C i▁ty</w>
▁chang es</w>
a▁ m</w>
▁re port
▁Tr ade</w>
ow l
▁poin ts</w>
▁fil m</w>
▁aud it</w>
▁design ated</w>
ed ge</w>
a▁ le</w>
m ar
s y</w>
c ul
u ture</w>
in s</w>
▁opin ion</w>
ar ant
▁par ties</w>
▁t▁ o</w>
s ang
n▁ ow</w>
in▁ gs</w>
fac il
in c▁
▁pres ent</w>
▁cl aim
▁sim ilar</w>
▁R ec
▁en ough</w>
▁cont ent</w>
▁k ind</w>
▁en ergy</w>
▁stat us</w>
▁pres s</w>
▁pas sed</w>
gr ic
for cement</w>
ou▁ l</w>
an▁ g
▁reg ulations</w>
ann ed</w>
▁St ate</w>
▁A gency</w>
▁t akes</w>
▁ill egal</w>
▁S ung</w>
▁A nd</w>
tif ul</w>
s er
▁P h
t▁ ly</w>
▁1 3</w>
▁natur al</w>
l ow</w>
e un</w>
mon th</w>
t w
ol ds</w>
ch e▁on</w>
y ears</w>
ol o▁
▁un iversity</w>
▁det ails</w>
ae j
▁prin ci
▁dis trict</w>
▁ter ms</w>
um e</w>
or ry</w>
sti m
h ea
Kore▁ a</w>
▁sus pec
▁s ports</w>
ch ang
iv ely</w>
▁includ ed</w>
t▁ ing</w>
m a▁r
▁par ts</w>
▁pl aces</w>
▁f inis
▁t as
▁s even</w>
▁l ost</w>
▁on line</w>
n er
i▁ r
ro om</w>
▁t arg
▁pic ture</w>
▁m om
tr ic</w>
l ife</w>
▁en ter</w>
con ven
▁c am
▁J i</w>
▁Intern et</w>
e▁ ty</w>
▁consid ered</w>
oo k
d ings</w>
▁rec ru
as tic</w>
▁comm issi
▁g etting</w>
▁Dep artment</w>
ent ers</w>
▁sc ene</w>
ti on
tern oon</w>
m i▁n
▁govern ments</w>
▁e duc
sup po▁rt</w>
▁contro versy</w>
t ee</w>
i▁ m</w>
▁cons ult
▁open ed</w>
▁m et
▁recor d</w>
rea m</w>
▁exper i
▁V iet
▁o il</w>
▁L iber
. 1</w>
d on▁g</w>
. 6</w>
v ari
od e</w>
▁progr ams</w>
▁S eptember</w>
j ust</w>
▁m et</w>
▁H an</w>
▁contin ued</w>
▁an im
ester day</w>
▁buil t</w>
f un
en d▁
t▁ ime</w>
b ers</w>
▁t ow
o▁ nd</w>
ab il
g n
▁A sian</w>
s k
p ite</w>
&a▁po▁s ;t</w>
tur al</w>
c ▁e</w>
et ary</w>
▁ac tive</w>
I ▁
ov ember</w>
u▁ se</w>
g overn
▁determ ined</w>
▁tr affic</w>
▁tri p</w>
▁ et</w>
an tly</w>
▁underst and</w>
▁f ee</w>
▁Elec tronics</w>
▁su ffer
irec tor</w>
h s</w>
at▁ es</w>
is ions</w>
an▁ ge</w>
▁ch ief</w>
e▁ se</w>
ain▁ st</w>
▁f all</w>
p▁ ar
▁s ett
▁O ctober</w>
▁t w
▁g ave</w>
. 8</w>
▁exp and</w>
o ot
▁ret ur
▁h y
▁busin esses</w>
b us
▁eas ily</w>
▁r ice</w>
or ed</w>
wh i▁le</w>
our th</w>
l ong</w>
l ev▁el</w>
G ye
au ght</w>
▁d on
▁d evel
▁G od</w>
▁typ e</w>
▁sp read</w>
in ning</w>
▁Y ang</w>
wh ere</w>
b▁ e
▁d eath</w>
f ro▁m</w>
▁re duce</w>
▁st aff</w>
&▁a pos;s</w>
eti tion</w>
▁in side</w>
l▁ ike</w>
▁Ad ministration</w>
ucl ear</w>
▁C l
e ering</w>
▁manag er</w>
▁iss ued</w>
▁be h
y le</w>
enc ▁e</w>
U .S.</w>
▁D uring</w>
▁s aw</w>
▁g oods</w>
b etwe▁en</w>
ow▁ er</w>
f u▁
▁f emale</w>
▁1 3
. 4</w>
orpor ation</w>
incl▁ ud
ad ministr
▁Hy un</w>
J ung</w>
▁ar ti
onal d</w>
ell ent</w>
▁w oman</w>
▁charac ter
▁201 6</w>
pl ay</w>
t in▁g</w>
▁inter ested</w>
▁sum mer</w>
▁sched ule</w>
i▁ ly</w>
▁wee k
▁1 6</w>
s al
a▁ e</w>
▁prescri bed</w>
▁M us
con sid
▁&qu ▁ot▁;</w>
▁B e
om ic</w>
c a▁n</w>
ad s</w>
▁l ist</w>
at e▁d</w>
G over
▁hea t</w>
▁compl ex</w>
ear ing</w>
▁sus pen
p as
gover ▁n
k no▁
j ong</w>
i ent</w>
y▁ ear</w>
en ed</w>
▁inten ds</w>
▁l ec
&apo▁s ;</w>
in st
is tics</w>
est ablis
▁infl u
▁sen ior</w>
▁contin u
▁b ack
▁de emed</w>
▁2 nd</w>
g ener
▁E conom
▁con fl
p t</w>
d ays</w>
p ar▁
▁person nel</w>
9 th</w>
▁stand ards</w>
▁h and</w>
▁comm er
t eam</w>
N orth</w>
▁tea ms</w>
▁M anag
sc ri
s ucc
an ch</w>
▁stand ard</w>
ti t
p▁ ublic</w>
istr i▁ct</w>
di ff▁
tu ally</w>
a em
▁l ack</w>
▁b ig
▁mat ch</w>
▁ac qu
▁devel op</w>
▁S pec
vi ew
ea▁ r</w>
▁est ate</w>
um st
g▁ h</w>
e ight</w>
di ffic
oc ks</w>
&a▁ pos;</w>
▁st ation</w>
▁J anuary</w>
a x
▁improv ement</w>
tiv es</w>
▁institu tion</w>
en sive</w>
▁P er
▁fam ous</w>
art ph
▁pati ents</w>
▁b us
em entary</w>
▁Wh y</w>
d o▁ng</w>
▁l ight</w>
A n
c urr
▁A ffairs</w>
▁immedi ately</w>
▁av ailable</w>
g▁ h
▁g ather
▁du ties</w>
▁201 8</w>
os ▁
▁ch airperson</w>
T▁ he</w>
G wang
an▁ s</w>
▁par king</w>
▁w anted</w>
in ter</w>
▁proper ty</w>
▁M r.</w>
at ch</w>
▁go al</w>
▁e stim
mos ph
wi▁ t▁h</w>
com m▁
▁t ick
▁r ap
▁ind ic
▁larg est</w>
▁al one</w>
r en
▁pro g
ebru ary</w>
▁hea d
com ▁p
▁v ac
▁sub mitted</w>
▁p .m.</w>
▁d oll
ot te</w>
rea n</w>
▁trans portation</w>
▁m obile</w>
st ar
b us▁
o ds</w>
▁v illage</w>
▁s ea
▁requ ired</w>
▁ad ver
▁A ugust</w>
s ome</w>
▁do esn</w>
bas ▁ed</w>
▁Th ese</w>
,0 ▁00</w>
pr is
▁requ ir
▁Da egu</w>
s ign
inc i▁al</w>
av ▁
▁b ill</w>
p▁ or
▁min imum</w>
▁en d
ic on
al l▁
▁m ight</w>
▁S ing
Ch ina</w>
▁c old</w>
▁proc ed
▁W a</w>
ur s</w>
D istri▁ct</w>
▁do ing</w>
is ted</w>
p u▁
▁F estival</w>
▁tal k</w>
▁vehic les</w>
▁fam ilies</w>
. 7</w>
ac t▁
▁sh ip
h er
▁l ives</w>
▁car ried</w>
w o▁
h y</w>
e▁ m</w>
s iz▁ed</w>
n▁ or</w>
vis ▁
ab out</w>
▁sing le</w>
a▁ in</w>
▁s ou
▁j ud
res ent
ab ly</w>
▁th ing</w>
▁individ ual</w>
▁h on
ow i▁ng</w>
s s▁
0 0
▁A ir
▁n etw
▁bel ow</w>
erv ation</w>
▁cont act</w>
ti▁ es</w>
i f▁
▁w it▁h</w>
▁C urr
u tiful</w>
h▁ in</w>
▁A ll</w>
▁$ $</w>
▁fur ther</w>
der ly</w>
a▁r t</w>
▁us er</w>
busin e▁ss</w>
pro sec
art ments</w>
▁exam ple</w>
th ly</w>
▁approv al</w>
ul es</w>
ag re
▁Prov incial</w>
b er
▁C EO</w>
s ay
p o▁l
▁comp ens
▁oper ated</w>
ong er</w>
f y</w>
▁g ir
▁rel ation
▁expres sed</w>
▁pers onal</w>
▁car s</w>
w ide</w>
Ko▁ rean</w>
▁analy sis</w>
h el
▁wh ole</w>
▁Se ung</w>
o ff▁
▁restaur ant</w>
ins ula</w>
ef o▁re</w>
▁& a▁
oo▁ k</w>
mor ▁e</w>
ear▁ ch</w>
o▁ c
▁1 8</w>
il d</w>
▁Dec ember</w>
at s</w>
ul ate</w>
an d▁
▁ap artment</w>
▁str ateg
▁f elt</w>
ati▁ onal</w>
▁questi ons</w>
▁lear n</w>
ou l▁d</w>
5 ▁
▁S tr
hi▁ gh</w>
S u
ell ig
▁trans fer</w>
▁rece iving</w>
▁J ang</w>
o ke</w>
on d
Prov ince</w>
▁star ting</w>
▁fu nd</w>
▁m other</w>
▁cr isis</w>
▁T V</w>
▁&▁ amp;</w>
▁p oor</w>
m arket</w>
be i▁ng</w>
▁appoin ted</w>
y i▁ng</w>
f il
▁del ivery</w>
in to</w>
▁M ed
k et</w>
▁execu tive</w>
E duc
▁y et</w>
▁aut om
▁mod el</w>
▁s ent
si b▁
li▁ ke</w>
▁temper ature</w>
▁D ef
▁ur ban</w>
k y
▁Pro f
c os
▁G u
▁1 4</w>
▁wor k
te▁ am</w>
▁b ad</w>
▁ac tual</w>
y er</w>
▁ag encies</w>
cont in
▁O h</w>
▁b ank</w>
▁V ice</w>
▁J ustice</w>
▁ag ric
▁201 7</w>
&ap▁os; ve</w>
▁high est</w>
▁consum ers</w>
▁Y oo</w>
▁19 9
▁1 ,
▁u til
▁e y
ti on▁s</w>
▁y outh</w>
▁ha p
▁B y</w>
i▁g n</w>
. 9</w>
▁c redit</w>
▁J in</w>
▁em phas
▁L abor</w>
pr ec
m▁ ay</w>
▁M on
▁ch o
▁C orporation</w>
&a▁pos;▁ d</w>
▁v en
ong s</w>
i▁n ce</w>
U ▁
▁im plement</w>
▁man age</w>
l obal</w>
▁r e▁
us ▁ed</w>
▁h o</w>
▁ac tion</w>
▁P en
a x</w>
l ea▁
d u▁
an▁ y</w>
▁sec retary</w>
▁a head</w>
eed ed</w>
▁qu ickly</w>
▁boo ks</w>
▁lea ding</w>
▁ind epend
you▁ ng</w>
pos sible</w>
&ap▁os; re</w>
▁consid ering</w>
wo▁r k</w>
ul ed</w>
▁U .
li k
D ec
▁ref lec
▁S ong</w>
p ay
clud ed</w>
si▁ te</w>
o ts</w>
▁s t▁
ic ▁es</w>
▁I r
▁charg es</w>
et ed</w>
i▁ de</w>
b r▁
▁f ell</w>
▁un ion</w>
d uri▁ng</w>
c▁ il</w>
ig r
▁re duced</w>
▁J eong</w>
▁orig inal</w>
▁d one</w>
m▁ it</w>
qu al
e▁n t
em en▁t</w>
tr▁ y</w>
▁in nov
▁h it</w>
▁f re
▁ch airman</w>
▁reg arding</w>
▁del iver
▁h e▁
▁dis aster</w>
▁a ▁
l der</w>
&ap▁os; ▁
▁g ames</w>
▁c entral</w>
▁con ference</w>
p ublic</w>
e▁ ment</w>
▁Kor eans</w>
▁T echn
▁or dered</w>
▁K yung</w>
P r▁
r ight</w>
or ing</w>
▁M ot
ol l▁
▁h ot</w>
▁cer tific
l eg
▁cer tain</w>
f a▁
▁eff orts</w>
m on▁
▁lo an</w>
s e▁r
▁coll ege</w>
▁opport unity</w>
▁exam ination</w>
the▁ y</w>
&ap▁os ;</w>
i▁c y</w>
S am
o▁ u
a ult</w>
▁2 5</w>
ta▁ ke</w>
o ch
erm any</w>
F in
▁cap ital</w>
m us
e▁ ss
▁A re</w>
por ting</w>
et c</w>
ar ies</w>
eleb r
eal s</w>
▁s ong</w>
▁professi onal</w>
oo t</w>
▁w aste</w>
mosph ere</w>
h ol
i▁ or</w>
▁Liber ty</w>
I n</w>
h im</w>
ec▁ ts</w>
augh ter</w>
▁all eg
in tro
coun t</w>
▁F rom</w>
o f▁f
a j
▁sk in</w>
tribu ted</w>
▁N ovember</w>
▁c amp
ur ed</w>
oun▁ g</w>
u g</w>
s ang</w>
ib er▁
▁implem entation</w>
▁s ee
▁in f
▁un ivers
▁qu estion</w>
af t</w>
▁g overnor</w>
ut ors</w>
s▁ tr
▁wea ther</w>
▁comm on</w>
h▁ o</w>
Or din
▁tr end</w>
▁commissi oned</w>
ent ing</w>
u▁ m</w>
▁S m
▁Curr ently</w>
ye a▁rs</w>
d▁ r
ac ks</w>
a o</w>
▁th ere
m ade</w>
▁ris k</w>
▁Gang nam</w>
▁com ing</w>
▁perform ances</w>
▁conc entr
▁H wang</w>
s in▁ce</w>
m i▁
▁dis t
▁D onald</w>
our ce</w>
▁sc re
C ity</w>
▁s anc
▁cr ime</w>
▁concer ns</w>
it able</w>
u▁ ch</w>
s h</w>
id ▁ed</w>
ea t
a▁ de</w>
▁s pen
▁p resid
our n
▁law mak
▁bea utiful</w>
o▁r t</w>
ec t▁ed</w>
D emocr
▁A t
sel ves</w>
re▁ c
4 ▁
▁y esterday</w>
▁ra ise</w>
h ood</w>
y ong
▁usu ally</w>
▁ch urch</w>
▁ab o▁ut</w>
is l
f l▁
▁h er
▁com es</w>
f▁ rom</w>
▁deg rees</w>
▁I sland</w>
tim ▁e</w>
ativ ely</w>
▁in jur
▁b ri
▁Trans port</w>
▁H ealth</w>
e p▁
▁w i▁ll</w>
▁col or</w>
Ko▁ rea</w>
is ten
▁d ou
▁bur den</w>
pl ex</w>
▁h os
sec o▁nd</w>
r▁ ec
co▁m p
▁reas ons</w>
esti g▁
▁Ch eong
ff i▁ce</w>
▁exc ellent</w>
sh o▁
▁produc ed</w>
por ▁t</w>
i▁n a</w>
cor por
P reside▁nt</w>
u▁ al</w>
il l▁
gr ad
▁s pr
d e▁r</w>
▁tri ed</w>
▁wh▁ ich</w>
▁broad cas
in ary</w>
g ing</w>
▁d riving</w>
i▁ ef</w>
▁lear ning</w>
▁doc ument</w>
▁wat ch</w>
st anding</w>
▁succ ess
A m
ent▁ ly</w>
▁r en
▁p r▁
▁inst alled</w>
s ts</w>
eo▁ ple</w>
▁f alling</w>
sy st▁em</w>
▁requ ested</w>
▁Se o</w>
▁stor es</w>
▁P eople</w>
v ol
▁sum mit</w>
u ge</w>
dr aw
▁F ebruary</w>
tr ess</w>
over ed</w>
▁ach iev
▁gu id
▁ad d
▁&apo▁s ;s</w>
m ee
▁r ound</w>
i k</w>
au th
j ob</w>
i▁ ze</w>
&▁ q▁uot;</w>
▁h eal
▁concer t</w>
▁Th ank</w>
th i▁s</w>
b s</w>
s ue</w>
▁reg ional</w>
e th▁er</w>
▁h otel</w>
▁h all</w>
C O</w>
▁6 0</w>
d ue</w>
&ap▁os; ll</w>
um an</w>
he▁ l
p riv
d om
▁prescri be</w>
▁l if
li am
▁hear t</w>
wi▁ th
ibr ary</w>
em b▁
▁occ urred</w>
▁Ch ung</w>
ma▁ ke</w>
be▁c a▁use</w>
a ut
▁m ind</w>
▁w eb
un ities</w>
pro t
B C</w>
▁s yst
up s</w>
t▁ ic
tr ad
r i</w>
B S</w>
▁pres sure</w>
▁investig ating</w>
t ations</w>
▁201 5</w>
en viron
&a pos▁;</w>
▁hap pen
re present
or d</w>
iti e▁s</w>
er a</w>
▁Y eong
or thern</w>
ec▁ ted</w>
ay▁ or</w>
ov ed</w>
In dus
▁M in</w>
▁s ▁
t em
&▁a p▁os
▁entr ance</w>
th▁ em</w>
as h</w>
▁br ing</w>
▁cri tici
v al
ae k
▁t im
u ter</w>
m ake</w>
e f▁
▁s ense</w>
▁lea ders</w>
wh▁ ich</w>
ea▁ ch</w>
an ch
▁comm unication</w>
e▁ st
▁s exual</w>
▁tr ying</w>
w r
el▁ y</w>
is on</w>
▁dram a</w>
u i</w>
o in▁
an▁ ts</w>
▁f requ
▁super vis
T V</w>
▁inter pre
ai▁r s</w>
▁m etropolitan</w>
▁ex erc
oc i▁al</w>
igh▁ t</w>
D a
▁d own
g▁ ed</w>
▁mat ter</w>
▁f ig
a▁ ble</w>
▁sub par
▁sit es</w>
s▁ p
i en▁ce</w>
e o▁n</w>
▁m emor
il ed</w>
▁s ession</w>
oh n</w>
duc ing</w>
▁wor th</w>
▁foll owed</w>
ec o▁n
▁in ter</w>
▁n uclear</w>
▁dis app
▁Reg arding</w>
in stitu
4 0</w>
▁s ea</w>
h ing</w>
a▁ ri
b rea
▁p un
sh ar
▁circ umst
▁mark ets</w>
▁S ang</w>
▁& q▁u
th e▁r</w>
direc t▁or</w>
ab or
e▁n s</w>
▁atten d</w>
t i</w>
▁adv ant
▁L otte</w>
t▁ ri
▁w id
olo▁ gy</w>
▁ser ies</w>
▁ac adem
▁T ae</w>
▁M ost</w>
i e▁
▁Al so</w>
▁3 rd</w>
ear by</w>
O S
▁tr ue</w>
▁br and</w>
s i</w>
on str
icon duc
▁imp act</w>
iv ▁e</w>
v ic
oth es</w>
c u▁
i p▁
iti ons</w>
e ign
d in▁g</w>
▁predic ted</w>
▁Def ense</w>
sh▁ ip</w>
j i</w>
Comm itt▁ee</w>
▁organiz ed</w>
ab les</w>
▁ey es</w>
wh at</w>
ult i</w>
e or
S up
d oc
▁go▁ ing</w>
▁N am</w>
ic ally</w>
▁F und</w>
announ c▁ed</w>
▁st op</w>
thr▁ ee</w>
▁re duction</w>
s▁ oo</w>
manag eme▁nt</w>
▁benef its</w>
j▁ in</w>
N at▁ional</w>
ou▁ se</w>
et e</w>
▁play ed</w>
▁c enters</w>
▁N am
▁it self</w>
▁im age</w>
ell s</w>
S ou▁th</w>
▁th e▁re</w>
▁R e
▁victi ms</w>
▁s ays</w>
d▁ id</w>
M anag
▁educ ational</w>
ul▁ ar</w>
tr i▁al</w>
t ation</w>
▁e ight</w>
▁2 4</w>
n e
ess ing</w>
▁var iety</w>
▁relation ship</w>
▁for ward</w>
▁hea vy</w>
i on▁s</w>
ut or</w>
at t▁
P ro▁
st and
m emb▁er</w>
h ea▁
cl u▁
▁m o
ye▁ ong
▁n orm
k ▁ed</w>
▁el ig
U S</w>
▁ow ner</w>
▁cou ldn</w>
in d▁
m in</w>
▁intro duce</w>
▁d uty</w>
por ▁ts</w>
Ordin an▁ce</w>
▁l ow
t ake</w>
it▁ s</w>
inten dent</w>
g re▁
▁win ter</w>
rou▁ nd</w>
ter ▁
▁sh owing</w>
▁coun cil</w>
wor ld</w>
inv est
h os
s em
oi▁n t</w>
▁L ocal</w>
▁K ong</w>
▁reg is
▁r ates</w>
▁vi ew</w>
▁dis tribution</w>
▁Rus sia</w>
▁laun ched</w>
▁ann ual</w>
▁D irector</w>
tr o▁
In tern
▁acc idents</w>
p resid
▁beh ind</w>
a▁ ir
▁af ternoon</w>
ar t▁
pro m
e▁ ar</w>
▁r ead</w>
▁pop ulation</w>
▁enter pr
t oo</w>
gr o▁
▁m er
▁Manag ement</w>
ti▁ n
s et</w>
s er▁
et ings</w>
t ained</w>
an e</w>
am ▁e</w>
▁wr iting</w>
Un iver
▁comp reh
su▁ r
b l▁
▁n ation</w>
▁de pos
▁c ur
▁high ly</w>
Prov inc▁e</w>
▁notif y</w>
▁sup pl
▁In frastructure</w>
▁G ermany</w>
ular ity</w>
▁particip ants</w>
▁corpor ate</w>
v e
▁eval u
▁r ain</w>
▁D es
i▁ f</w>
it▁ ion</w>
▁enti re</w>
ur ▁es</w>
k▁ ing</w>
h a</w>
f ace</w>
er ies</w>
▁ph ys
▁fil ed</w>
▁Dis trict</w>
▁c aught</w>
▁Y ong
c ast</w>
▁k inderg
▁compl ain
istr ation</w>
▁m as
▁differ ence</w>
k en</w>
a ul
▁H igh</w>
vari o▁us</w>
onom y</w>
ener al</w>
▁res t</w>
ar ily</w>
&ap▁os▁ ;
▁vis itors</w>
▁im m
f in▁
▁ar riv
▁wr ong</w>
▁mom ent</w>
▁beg inning</w>
▁Sec retary</w>
ivers ary</w>
evelop ment</w>
me ans</w>
e i</w>
S▁e oul</w>
▁p or
▁enter ed</w>
b and</w>
▁struc ture</w>
ul ated</w>
▁f ile</w>
k ey</w>
ev al
▁v ice</w>
▁buil d</w>
▁en cour
▁custom er</w>
tis ts</w>
▁w in</w>
▁sh opping</w>
▁at mosphere</w>
▁f ather</w>
▁coll ection</w>
m in▁
im prov
d ec▁
M in▁
▁particip ation</w>
▁foc us</w>
▁Com p
ea▁ n</w>
dic tion</w>
▁sus pic
▁cl ub</w>
▁ad vis
tain ment</w>
el ds</w>
▁t aste</w>
ans ion</w>
▁dis c
▁c ut</w>
F or
▁Spec ial</w>
sc a▁le</w>
a▁ d</w>
m uch</w>
▁int egr
uclear ization</w>
econ om▁
▁res ources</w>
T h▁e</w>
▁inter view</w>
wh ile</w>
tern al</w>
▁ar gu
sch o▁ol</w>
tiv eness</w>
i▁ l</w>
ed eration</w>
▁h our</w>
▁g row</w>
▁4 th</w>
oo king</w>
h ous
▁hol ding</w>
h i▁s</w>
g le</w>
▁wh ose</w>
▁bo ard</w>
ea ter</w>
▁Prof essor</w>
s ystem</w>
K i▁m</w>
▁hou ses</w>
tic ism</w>
e▁r n</w>
▁Rep resent
s ame</w>
l i▁ne</w>
n▁ am</w>
e▁x t</w>
▁r e</w>
▁In v
o in</w>
ap pro
j us
▁mess age</w>
inv estig▁
▁s n
▁th em
▁rece ip
▁prot ection</w>
n ec
s om
m es</w>
▁m en
▁gu arant
▁Ch airperson</w>
w ou▁ld</w>
aus ▁e</w>
ar ded</w>
con struc
f ully</w>
▁stat ement</w>
▁1 7</w>
me▁ m
f ood</w>
ar▁ d</w>
ag ain▁st</w>
A▁ ct</w>
▁tea cher</w>
▁F ac
in ▁e</w>
▁G r
tur ▁e</w>
▁vi ew
eti c</w>
l ement</w>
S erv
▁A p
▁s ale</w>
b ass
▁inc ident</w>
▁enj oy
si▁ de</w>
sh all</w>
os eon</w>
oo▁ d</w>
igh t
g row
▁trans ac
▁b ase</w>
ul l
I n▁
▁sanc tions</w>
▁div ision</w>
a▁ fter</w>
▁repor ts</w>
▁indus tries</w>
▁entr usted</w>
ud d
a f▁
▁univers ities</w>
rea t</w>
ar ea</w>
▁real ity</w>
h▁ ow</w>
▁Se ong
▁sm artph
▁f ailed</w>
Ar tic▁
▁rea ding</w>
neg oti
▁spec ific</w>
▁ear lier</w>
l san</w>
▁S on</w>
▁dis ease</w>
▁bl ood</w>
▁p ost</w>
eh ol
e i▁
▁S un
▁Ch eong</w>
ou gh
o e</w>
comp eti
c ally</w>
ae k</w>
▁L ea
i en
▁wor ked</w>
▁t en
n on</w>
it▁ ies</w>
id ge</w>
▁d irect</w>
expec t▁ed</w>
ing ly</w>
▁s am
▁m ut
sp▁ ec
r▁ ea
d ev
ar b
a por
▁s ud
▁chil d
ow▁ ed</w>
b ack</w>
ver s</w>
▁p i
▁lim ited</w>
rea▁ se</w>
▁av o
▁analy zed</w>
▁el derly</w>
t our
p▁ r
e▁ y</w>
eo pl▁e</w>
ur t</w>
ec ting</w>
▁w ays</w>
ust ment</w>
t▁h eir</w>
ivers i▁ty</w>
en▁ se</w>
e um
J ong</w>
▁accoun ting</w>
D ep
1 0
u▁l t</w>
ub ▁
l aw</w>
ye▁ on</w>
c ase</w>
▁m ul
▁ac ross</w>
▁C ulture</w>
w▁ or
t op</w>
t est</w>
▁Ch ief</w>
▁househ olds</w>
▁st ay</w>
l im
▁Y ork</w>
▁L ast</w>
bec au▁se</w>
▁p aper</w>
▁g reen</w>
▁d est
su p▁
b el
▁Americ an</w>
di ffer
ar▁ ea</w>
▁s cor
▁A hn</w>
rou gh
rea l</w>
agrap hs</w>
▁sol ve</w>
▁r ati
▁particip ating</w>
▁p oll
▁inst all
▁O ur</w>
▁pr em
su▁ p
su▁ ng</w>
res i▁d
qu are</w>
o ffici
h ere</w>
▁pos itive</w>
▁a im
s ity</w>
▁m ach
n ey</w>
cal l▁ed</w>
▁wh ite</w>
▁s ymp
1 00</w>
▁w al
▁agre ed</w>
y cle</w>
memb e▁rs</w>
mee ti▁ng</w>
M oon</w>
m a▁ny</w>
▁hear ing</w>
▁g round</w>
iv e▁r
1 5</w>
owl edge</w>
▁r ed</w>
▁sched uled</w>
▁h ands</w>
▁Viet nam</w>
▁% %</w>
e▁ l</w>
end a</w>
▁lo ans</w>
el imin
▁&a p▁os
sec ▁
▁1 8
iz es</w>
it ation</w>
▁b ought</w>
▁J in
▁A sia</w>
pres ▁
▁some one</w>
▁di ed</w>
ch ain</w>
▁tea chers</w>
▁re ven
▁direc tion</w>
pr▁ ov
k ay</w>
uc k</w>
for▁ m
el ed</w>
re t</w>
f▁ o▁r</w>
▁S afety</w>
▁sim ple</w>
▁s ell</w>
▁v ir
▁M ore</w>
d a▁y</w>
▁el ementary</w>
▁For eign</w>
1 8</w>
iber▁ ty</w>
P ol
▁Y ong</w>
fi▁ r
f uture</w>
▁p ot
▁or din
▁Pro sec
s a</w>
por ▁
h ist
am ed</w>
▁inst ead</w>
pri ate</w>
id ly</w>
A r▁
l▁ es</w>
m illi▁on</w>
dis tr
1 3
▁prov isions</w>
▁los s</w>
▁Sec urity</w>
a b</w>
in tern
▁tour ists</w>
▁pl ant</w>
p ower</w>
▁cl othes</w>
s y▁
▁tr ain</w>
e▁ ar
at▁ er</w>
n e▁xt</w>
& amp;</w>
▁d eal</w>
▁candid ate</w>
▁ev idence</w>
we▁ ll</w>
▁Res earch</w>
ow ers</w>
an c▁
S .
anc i▁al</w>
1 2</w>
▁m enti
▁str essed</w>
s c▁
is i▁on</w>
C ent▁er</w>
▁elig ible</w>
ol▁ d</w>
▁coun sel
▁compens ation</w>
G ye▁ong
w s</w>
k now</w>
20 1▁
▁Rec ently</w>
p ubl
d o
▁pos ted</w>
▁i r
y ers</w>
so▁ o</w>
ear ance</w>
l ymp
Par t▁y</w>
Democr at▁ic</w>
▁t it
▁b anks</w>
ir e▁c
▁re ti
▁St ud
Com m▁
▁e specially</w>
th▁ rough</w>
pl a▁ce</w>
g l
c ity</w>
an ad
▁rel ease</w>
▁f ully</w>
g ery</w>
2 5</w>
in ner</w>
2▁ 0
▁N ow</w>
ip p
▁fav or
er ve</w>
c i▁ty</w>
▁negoti ations</w>
▁dri ver</w>
▁all ow</w>
u ▁e</w>
m▁ in</w>
m p
ea v
ci pl
▁pr ec
in form
▁w ▁
▁per form</w>
▁hol iday</w>
▁1 9</w>
l▁ th</w>
g▁h t</w>
▁p m</w>
▁difficul ties</w>
▁Je oll
▁F oundation</w>
▁ann iversary</w>
con f
▁recor ds</w>
ag ing</w>
▁sh own</w>
▁exc ept</w>
eb ook</w>
a im</w>
▁sp eed</w>
▁s atis
▁mov ement</w>
o▁ un
f▁ ul</w>
▁deliver ed</w>
er ce</w>
▁tem por
▁g as</w>
▁ ing</w>
6 ▁
h ome</w>
▁pl at
▁Indus trial</w>
▁1 0th</w>
ustr al
▁l un
▁determ ine</w>
enti▁ al</w>
▁ch ance</w>
trib ute</w>
o ff</w>
▁recomm ended</w>
in ds</w>
▁w ish</w>
▁l iv
e o▁ng</w>
▁p o
▁E ar
sti tu▁
S t▁
▁res tric
▁occ up
▁K ing</w>
im plem
d oor</w>
b ir
▁th eme</w>
Minis t▁ry</w>
▁th▁ at</w>
▁s om
▁loo ks</w>
▁foll ow</w>
▁20 th</w>
ain i▁ng</w>
▁W elfare</w>
▁O f</w>
▁C ould</w>
▁ser ious</w>
w a▁
g en</w>
▁ra ising</w>
▁b al
pl om
&a▁pos;▁ m</w>
es▁ s
▁netw ork</w>
▁n ature</w>
▁mater ial</w>
as ▁t</w>
▁un it</w>
▁pass eng
▁C ultural</w>
ou▁ gh</w>
▁str eet</w>
▁n earby</w>
▁j ur
▁in s
i▁ ci
coun ▁
▁tur ned</w>
▁co ff
▁ y</w>
t oc
ou▁r t</w>
he▁l p</w>
In che▁on</w>
is tic</w>
ill ing</w>
&ap▁os; v▁e</w>
▁new ly</w>
▁n ation
ic an</w>
▁w on
en i▁ng</w>
I ▁n
▁exch ang
0 0,000</w>
▁qu arter</w>
▁Su per
▁Ab out</w>
oti ce</w>
▁sec ure</w>
et er
▁d ig
f▁ l
▁s ound</w>
▁gather ed</w>
▁2 00</w>
don es
am o▁ng</w>
aej eon</w>
▁re form</w>
▁o ffer
▁environ mental</w>
▁en sure</w>
b u</w>
Minis t▁er</w>
D ong</w>
▁g re
re▁ g
mark ▁et</w>
▁reg istration</w>
er t</w>
▁E ast</w>
▁D on</w>
i▁ te</w>
▁f ro▁m</w>
▁candid ates</w>
▁big gest</w>
▁a .m.</w>
ro w▁
an▁ d
n ation▁al</w>
f▁ irst</w>
er i▁ng</w>
▁in iti
am a</w>
▁w ife</w>
econom▁ ic</w>
▁un f
▁invol ved</w>
▁En viron
y oung</w>
ter y</w>
pro je▁ct</w>
pre v
ag ain</w>
▁strength en</w>
en▁ d
▁M at
t ent</w>
an a</w>
▁for ce</w>
▁e ss
▁L G</w>
▁b ar
s e▁c
▁st ep</w>
▁s ure</w>
▁rel atively</w>
▁agric ultural</w>
A▁ r
▁ac t</w>
ul ting</w>
▁sk ills</w>
sp e▁
▁dis clos
spec i▁al</w>
e▁ as
▁becom es</w>
p▁ ort</w>
in spec
clud ing</w>
▁vis iting</w>
▁publ ic
▁exp ansion</w>
it ure</w>
ess▁ or</w>
ch ange</w>
th ea
h om
▁pre vention</w>
▁p eace</w>
▁go es</w>
▁bl ack</w>
u x
▁separ ately</w>
▁D evelopment</w>
▁eff ects</w>
num b▁er</w>
▁includ es</w>
c e▁n
▁pl ac
▁receip t</w>
▁par k</w>
▁p l▁
▁complet e</w>
es day</w>
ea ted</w>
as n</w>
▁A ir</w>
im self</w>
b eg
s u</w>
E lec
▁mov ed</w>
ur ities</w>
▁pro posed</w>
▁id ea</w>
it▁ al</w>
▁p ain</w>
m ain
2 2</w>
▁Sh in
ellig ence</w>
b▁ ec
▁regis tered</w>
▁con dition</w>
▁certific ate</w>
▁ab ove</w>
▁add ress</w>
▁H all</w>
▁en h
ris ti
ent▁ al</w>
J ap▁
▁G eneral</w>
sch ool</w>
o▁ m</w>
i ation</w>
e u
▁typ es</w>
▁gener ation</w>
co▁ un
6 0</w>
w▁ ant</w>
▁ev er</w>
▁f ourth</w>
si t▁y</w>
b a▁
en▁ t
▁n eigh
▁D ue</w>
p reside▁nt</w>
eas es</w>
▁un ique</w>
▁corpor ation</w>
th ere</w>
r▁ y</w>
id s</w>
▁Techn ology</w>
t oday</w>
ow on</w>
op ped</w>
l a▁r
P h
M ar
▁F ood</w>
i▁s m</w>
f▁ am
a▁ ted</w>
anc y</w>
▁s elling</w>
t ea▁
fr▁ ee</w>
▁implem ented</w>
ten ance</w>
or ▁s</w>
it ment</w>
I f</w>
n▁ ing</w>
▁c op
▁H is</w>
▁201 4</w>
r o</w>
c e▁
al ization</w>
▁s afe</w>
▁qu al
▁bas is</w>
▁tax i</w>
▁W on</w>
o▁ k</w>
▁over all</w>
▁C up</w>
ut ting</w>
ec k</w>
ea ker</w>
a w▁
▁super intendent</w>
▁K won</w>
▁For mer</w>
En g
▁m id
▁dec l
▁5 th</w>
▁all owed</w>
if y</w>
co▁ me</w>
com pl▁
▁l and
Prov ▁
▁viol ence</w>
▁d ream</w>
▁circumst ances</w>
▁S i</w>
j ud
er i
▁m y
▁laun ch</w>
off i▁ce</w>
h w
▁f un</w>
▁air port</w>
sh i▁
s n</w>
T S</w>
fort able</w>
vi ol
or i</w>
m od
eb all</w>
▁s on</w>
sh ou▁ld</w>
ou▁n t</w>
ic h
▁war r
▁pro posal</w>
▁c elebr
▁auth ority</w>
▁web site</w>
▁1 5
ou ▁s</w>
fo▁r m</w>
▁C o
o ffice</w>
b um</w>
art me▁nt</w>
ye o▁n</w>
t ogether</w>
Ch ung
Ass oci
ti▁ v
1 9</w>
▁proper ly</w>
▁prof it</w>
pro bl
is diction</w>
▁head quarters</w>
ult u▁re</w>
o x
e en
O ffi▁ce</w>
▁rea ched</w>
▁clos ed</w>
rou ght</w>
e ous</w>
▁them selves</w>
duc t</w>
▁wh ic▁h</w>
▁loc ation</w>
▁intern al</w>
u▁ ty</w>
t ea
n▁ ment</w>
h ouse</w>
occ er</w>
e ers</w>
d iv
▁invest ors</w>
▁draw ing</w>
▁consid eration</w>
▁S cience</w>
g overnment</w>
el ect</w>
at▁ ch</w>
P res▁
▁o lder</w>
▁con trac
▁compreh ensive</w>
▁conven ience</w>
g e▁n
▁s orry</w>
▁consult ation</w>
▁a ▁t</w>
▁P yeong
p▁ er</w>
oo d
▁buil dings</w>
▁Bl ue</w>
sm a▁ll</w>
m en</w>
it ted</w>
fri end</w>
▁Je on
▁s ign</w>
▁menti oned</w>
m▁ y</w>
Par ty</w>
▁re plac
▁prog ress</w>
▁car ry</w>
1 1</w>
▁it em</w>
▁b ott
▁7 th</w>
ac king</w>
Se ou▁l</w>
▁resol ution</w>
▁pop ularity</w>
▁S un</w>
▁In di
▁bro ke</w>
in n
an ti
ad ing</w>
▁separ ate</w>
▁crea ting</w>
m otion</w>
▁aud ience</w>
▁respon sible</w>
▁for est</w>
s▁ ho▁
▁tour ism</w>
▁r ad
▁W ave</w>
z ing</w>
iv il</w>
▁h uge</w>
▁b at
ub e</w>
on ing</w>
con t▁
▁grad u
un der</w>
Y oung</w>
▁tal ks</w>
h▁ eld</w>
s ▁e</w>
ok es
▁manufactur ing</w>
▁ha ir</w>
▁arres ted</w>
o▁m y</w>
▁n ur
oun▁ d</w>
p ean</w>
ex am
▁every one</w>
b o</w>
▁wa it</w>
▁func tion</w>
t le</w>
par ty</w>
manag ▁
ester n</w>
▁t urn</w>
▁cer tif
▁app eared</w>
j▁ u</w>
▁A gric
&apos; t</w>
ch arac
▁L im</w>
m a▁n</w>
iv al</w>
g▁ i</w>
v a▁ri
um▁ ber</w>
1 8
▁coll ected</w>
yp toc
eti mes</w>
▁m ak
s eong</w>
oun ding</w>
▁report edly</w>
en▁ d</w>
em pl
a▁n cial</w>
201 8</w>
w▁h ic▁h</w>
ig ▁n
▁s av
w ards</w>
ol ution</w>
ear ▁s</w>
a ign</w>
N ew</w>
ular ly</w>
oc ked</w>
it▁ tee</w>
ation ▁s</w>
▁v oice</w>
▁S K</w>
ic ine</w>
con tro
s ti▁
at▁ ions</w>
t u▁r
t e▁n
in g▁
im inal</w>
e▁ ms</w>
end▁ ly</w>
▁ex port</w>
s▁ ion</w>
sa▁ me</w>
il i▁ty</w>
comp any</w>
be e▁n</w>
ver se</w>
ti e▁s</w>
ter m</w>
cl a▁
N S</w>
udg et</w>
re▁ l
▁Dec ree</w>
ul t▁
▁presid ential</w>
▁lim it</w>
▁ab road</w>
re▁ s
over y</w>
st at
a▁l f</w>
a▁ f
▁f ast</w>
▁confl ict</w>
▁co ach</w>
m an▁
ann er</w>
ab y</w>
▁prac tice</w>
▁coff ee</w>
agn os
▁b it</w>
▁B o
▁sec tion</w>
▁cri ticism</w>
▁pri ze</w>
un i▁ty</w>
si o▁n</w>
▁clas ses</w>
▁Un like</w>
st or
▁doll ars</w>
▁det ailed</w>
tr a</w>
st▁ r
op er▁
C EO</w>
▁me etings</w>
s▁ et</w>
s▁ an</w>
ish ment</w>
▁s urr
en tr▁
c ent
▁Ch ang</w>
▁7 0</w>
▁princi ple</w>
▁s h▁
u al
▁g ap</w>
s im
atten tion</w>
▁ur g
▁t ou
▁Ta i
ing u
▁af t▁er</w>
m▁ on
j e</w>
develop me▁nt</w>
oo▁ l</w>
k in▁g</w>
it or</w>
L iber▁ty</w>
▁cl ean
▁R iver</w>
in v▁
P l
▁signific ant</w>
▁play er</w>
▁aff ili
or▁ y</w>
ch i</w>
Ch i▁na</w>
be▁c au▁se</w>
▁den uclearization</w>
▁Euro pe</w>
art en</w>
&a▁pos▁ ;m</w>
▁r an
▁prov iding</w>
▁fi x
▁sm o
▁l etter</w>
▁Indus try</w>
h ear
cl ear</w>
▁design ed</w>
▁Su won</w>
a▁ in
Gye o▁ng
▁phys ical</w>
▁ow ners</w>
▁ab ility</w>
▁d ance</w>
▁character istics</w>
▁T oday</w>
o▁n y</w>
E m
▁becom ing</w>
▁201 9</w>
att e▁n
▁n otice</w>
▁Un der</w>
g un</w>
ex pres
▁sh ip</w>
▁dis mis
eed s</w>
sh ips</w>
pl▁ an</w>
id o</w>
ploy ment</w>
ol f</w>
e▁ ts</w>
e un
s▁ u
ow er
olog ies</w>
▁s earch</w>
▁recogn ized</w>
▁ad j
ea u</w>
c▁ t</w>
y ph
il es</w>
▁dep ending</w>
ter n</w>
▁meth ods</w>
▁Y ang
y un</w>
ar ing</w>
▁elec tric</w>
▁commer cial</w>
t▁ w
m en▁ts</w>
dr▁ en</w>
d e▁c
af e▁ty</w>
▁stud ying</w>
▁con vers
apor e</w>
▁critici zed</w>
t▁ il</w>
me d▁
con sum
a▁ y
▁answ er</w>
▁ag enda</w>
w▁ an</w>
sy ch
▁intro duction</w>
▁charac ter</w>
▁ar tists</w>
t▁h er</w>
i h
&▁a pos▁;</w>
▁al most</w>
iti▁ ng</w>
ac c▁
▁w ave</w>
▁prov ides</w>
▁prepar ing</w>
▁pl anned</w>
h▁ ead</w>
er ous</w>
▁househ old</w>
us ion</w>
ir ing</w>
▁wat ching</w>
▁Th rough</w>
lar ation</w>
▁rea ch</w>
▁2 1</w>
str u▁c
eco▁n omic</w>
d am
bro ad
eep ing</w>
▁cl ean</w>
▁ac tually</w>
ch ar
▁res ear
n▁ er</w>
p▁ op</w>
g ation</w>
U .
i▁ v
h ou
▁sign ed</w>
▁ar ticle</w>
com ing</w>
1 3</w>
s▁ ee</w>
m ation</w>
tron ic</w>
ic ts</w>
an m
▁wa iting</w>
▁retur ned</w>
▁C entral</w>
en▁ ed</w>
▁ch all
su it</w>
▁l og
▁Kor ▁
in▁ k</w>
c re▁
▁crea tion</w>
▁C anad
▁sem iconduc
▁sc ope</w>
▁disab led</w>
▁1 8th</w>
oun ded</w>
▁h ear</w>
ov▁ ern
ad d
J i</w>
▁wee ks</w>
▁sub scri
▁f air</w>
iz ▁
Ch▁ oi</w>
&a▁ p▁os
b efo▁re</w>
ad ium</w>
▁every thing</w>
res p
b ea
▁targ et</w>
r ect</w>
m ay</w>
g es</w>
7 ▁
0▁ 0</w>
▁a ward</w>
ad ▁e</w>
▁prot ect</w>
▁er a</w>
y oun▁g</w>
uc▁ h</w>
o▁ t</w>
ou▁ r</w>
▁A ustral
▁Econom ic</w>
▁t able</w>
▁proced ures</w>
s oo</w>
rece iv
c aus
▁rati o</w>
▁estim ated</w>
▁6 th</w>
n▁ um▁ber</w>
▁all ow
▁Sup port</w>
s eo</w>
o▁ w</w>
o▁ ld</w>
▁19 th</w>
es ter</w>
▁g iving</w>
k y</w>
▁hist or
▁hea ds</w>
▁appoin tment</w>
▁Fin ance</w>
k n▁ow</w>
app oin
▁s ens
▁ex emp
▁any thing</w>
wh ic▁h</w>
rough out</w>
r a▁te</w>
p oin
con diti
▁for med</w>
▁f res
▁div ided</w>
p▁ ed</w>
B us▁
t▁h a▁t</w>
r▁ un</w>
am p</w>
s oci▁al</w>
▁mov ies</w>
▁expec ts</w>
ch arg
b est</w>
▁resid ent</w>
▁exerc ise</w>
t o▁r</w>
us h</w>
▁s elect</w>
▁s cience</w>
▁employ ee</w>
s or
U ▁n
▁al though</w>
th em
▁revis ion</w>
▁reg ions</w>
▁main ly</w>
▁im pres
▁J oseon</w>
A l
▁respon sibility</w>
sc ape</w>
▁jur isdiction</w>
▁in struc
on ds</w>
n▁ eed</w>
▁vac ation</w>
it ary</w>
▁t ex
▁l onger</w>
▁k illed</w>
▁arres t</w>
▁minis ter</w>
▁D id</w>
ta▁ in</w>
stud en▁ts</w>
pro du▁c
c ur
al ized</w>
reg ul
Prov inci▁al</w>
og y</w>
mo▁ st</w>
▁announ cement</w>
▁Y ear</w>
un k</w>
; ▁t</w>
▁w ind</w>
▁selec tion</w>
▁mov ing</w>
▁main tain</w>
▁l ibrary</w>
▁improv ed</w>
▁Ex per
s c▁h
pl an</w>
ecu tive</w>
c re
b ing</w>
igh ting</w>
d▁ is
▁a b▁
ang ▁
C▁ EO</w>
20 0
▁r ising</w>
us band</w>
ten s</w>
it age</w>
▁per mission</w>
u th</w>
▁expec t</w>
v i▁ce</w>
il▁ ity</w>
h el▁
comp a▁ny</w>
▁shar ing</w>
▁ma x
▁for eign
sid ering</w>
r▁ ee</w>
pos iti▁on</w>
ong ▁
ip ped</w>
▁tr ust
▁l at
▁ad op
ing ▁s</w>
▁Represent ative</w>
f ull</w>
▁H w
w eek</w>
t▁ er
resid en▁ts</w>
o▁ or</w>
o▁ ff</w>
H w
F r
▁succ ess</w>
▁En forcement</w>
t y▁
r ing</w>
elf a▁re</w>
r ate</w>
i on▁al</w>
ab▁ or</w>
▁influ ence</w>
▁del ayed</w>
▁I m
re g▁
p▁ eople</w>
osp it
▁subsid ies</w>
▁exp anding</w>
▁ex act</w>
▁O ffic
ere fore</w>
▁Euro pean</w>
z ens</w>
i▁ um</w>
▁D aejeon</w>
pro gr
ex pen
end ation</w>
a i▁n</w>
1 2
▁tow ard</w>
th l
con v
▁wor d</w>
our ism</w>
▁phot os</w>
▁r ental</w>
▁r ange</w>
▁exp anded</w>
▁dram as</w>
▁bl ock
or d▁er</w>
go▁ od</w>
▁w ide</w>
▁rem aining</w>
▁l ic
▁g ift</w>
▁8 0</w>
th en</w>
ro r</w>
fri end▁ly</w>
er ry</w>
▁restaur ants</w>
▁l in
sit u
l if
ess ment</w>
Gye▁ong gi</w>
▁no thing</w>
as ty</w>
▁recomm end</w>
▁claim ed</w>
▁acc ess</w>
▁M al
▁pl aying</w>
et es</w>
al ▁s</w>
▁main tenance</w>
▁In dones
serv i▁ce</w>
fl ect</w>
est ab
ic ated</w>
u▁ te</w>
s on
&▁a pos;
▁par t
▁f os
▁br anch</w>
▁Th erefore</w>
▁H u
g a▁
e tion</w>
e ech</w>
um s</w>
ati cally</w>
▁f oundation</w>
▁discus s</w>
▁cho ose</w>
ay ▁s</w>
o▁ ur</w>
▁sch ol
▁f ail
▁acc ep
▁&q▁u ot▁;</w>
onom ous</w>
hy ▁un</w>
▁comm unic
▁B ar
igh tly</w>
▁wr ite</w>
▁bo x</w>
▁success ful</w>
vi ously</w>
l ight</w>
ac ked</w>
▁T ur
ick en</w>
▁brea k</w>
▁Y e
educ ati▁on</w>
▁ex am</w>
▁Ph il
us es</w>
i▁ ght</w>
▁run ning</w>
▁l e
▁gr ade</w>
▁cor rec
u ti▁on</w>
m▁ ak
con tr
▁fi elds</w>
e▁ as</w>
en g</w>
C T</w>
▁farm ers</w>
▁c ro
s yst
per son</w>
li▁ fe</w>
ev ent</w>
do▁ wn</w>
▁pen sion</w>
pre par
incl▁ud ing</w>
er man</w>
▁suspec ted</w>
w▁h en</w>
re pres
m ea▁
h ead
▁in form
dep end
at▁ io▁n</w>
a is
▁accoun ts</w>
as es</w>
.▁ m.</w>
▁sea ts</w>
▁cas h</w>
pro▁ v
▁Chung ch
▁Ch r
unic ip
ul ner
ter ▁s</w>
comp anies</w>
▁pos t
▁z one</w>
▁foc used</w>
▁dr ink</w>
▁contin ues</w>
▁canc er</w>
o▁ wn</w>
▁11 th</w>
vis ory</w>
ou d</w>
N▁ orth</w>
▁h op
▁em ail</w>
y ong</w>
m il▁
i▁ ties</w>
ch ▁ed</w>
▁sup porting</w>
▁sup ported</w>
▁2 2</w>
▁19 8
p▁ rov
ag ric
S. -
▁w ants</w>
▁un its</w>
▁neg ative</w>
▁J ust</w>
▁Con sidering</w>
ow▁ n</w>
ee ts</w>
▁u ng</w>
re v▁
priv a▁te</w>
▁th inking</w>
indus try</w>
eed ing</w>
be▁ c▁
ar ou▁nd</w>
wh▁ at</w>
us i▁ng</w>
ch it
▁def ense</w>
r ul
i▁ st</w>
ell ow</w>
a ug
e▁ es</w>
en▁ ter</w>
M in
▁rap idly</w>
▁do or</w>
▁dem onstr
h igh
gro▁ up</w>
ed s</w>
▁scre ening</w>
▁investig ate</w>
▁ex ternal</w>
ta x</w>
t es</w>
s e▁n
cr im
bus▁ iness</w>
▁pic tures</w>
o ad</w>
va▁ri ous</w>
so▁ me</w>
os s</w>
▁mean ing
▁lim its</w>
or d
▁sh ou
▁heal thy</w>
▁P a
pol ▁
b ig</w>
i▁ me</w>
Un iversi▁ty</w>
▁T able</w>
u als</w>
▁meas ure</w>
▁3 1</w>
str eng
h ow</w>
▁res c
▁foc using</w>
▁fac tory</w>
▁dis count</w>
▁8 th</w>
▁12 th</w>
ep h
▁pres ented</w>
su per
p ar▁ty</w>
j ec▁ts</w>
an e▁se</w>
1 5
▁t our</w>
▁c h▁
t o▁rs</w>
ro te</w>
ab l▁e</w>
▁n ine</w>
1 6</w>
▁s ongs</w>
▁ar r
▁2 3</w>
with o▁ut</w>
en ch</w>
mak i▁ng</w>
hel p</w>
▁n ot
pr▁ es
ad minis
▁1 5th</w>
▁ob jec
▁sur gery</w>
▁install ation</w>
ter ing</w>
emb▁ ly</w>
c ul▁
▁h imself</w>
ffici ent</w>
▁st ocks</w>
▁manag ed</w>
▁consum er</w>
w ater</w>
inc o▁me</w>
▁qu ite</w>
prov ▁
▁d aughter</w>
c ent▁er</w>
c ar</w>
▁maj ority</w>
▁ex ports</w>
▁M et
▁K i</w>
le▁ ss</w>
el ess</w>
ar ious</w>
▁spr ing</w>
▁f a
por t▁
h ar
k ▁s</w>
▁coll ap
▁H ee</w>
▁Air port</w>
▁201 3</w>
t en</w>
iz ati▁on</w>
ac cor
r ement</w>
▁pri or</w>
▁R ules</w>
to▁ ok</w>
ho▁ me</w>
2 1</w>
▁per f
▁f ishing</w>
▁chang ing</w>
p▁ ro▁
ov▁ er
in ated</w>
den ly</w>
b ly</w>
▁mean ing</w>
▁emphas ized</w>
issi on
g▁ r
g g
em ▁s</w>
c ou▁ld</w>
as ing</w>
d i▁s
ot▁ al</w>
an y
▁fl ight</w>
▁end eav
s i▁ng</w>
is su
bl ic</w>
▁mon thly</w>
▁adver tis
▁O lymp
se▁ l
▁eff ective</w>
▁car eer</w>
c tion</w>
▁rel ations</w>
▁met ers</w>
ri ve</w>
f our</w>
▁counsel ing</w>
▁Y our</w>
▁K ak
▁Ch il
▁sol di
▁coll ect</w>
▁Gyeong sang</w>
m a</w>
h an</w>
eal ing</w>
w▁ oo</w>
p▁ er▁
▁sl eep</w>
▁Dep uty</w>
c a▁re</w>
▁ass ets</w>
▁N ot</w>
rup tion</w>
g ame</w>
▁reven ue</w>
▁f al
▁c o</w>
▁E un</w>
▁cl im
▁201 2</w>
or der</w>
i ew</w>
M ay▁or</w>
D em
▁tw ice</w>
yptoc urr
i▁ an</w>
h es</w>
o▁ uld</w>
e up</w>
C enter</w>
▁t ro
▁att emp
▁Ch risti
con duc
▁tax es</w>
▁recor ded</w>
t og
id e▁nt</w>
h ae</w>
▁u m</w>
▁gen der</w>
▁3 00</w>
p▁ h
C e▁n
, 5
▁tr ust</w>
▁re flect</w>
▁kn owledge</w>
▁in conven
▁del ay</w>
os an</w>
en tur
c andid
▁1 7th</w>
y cl
ti▁ ce</w>
tici p▁
p on</w>
f are</w>
▁st ep
▁p ack
▁conn ection</w>
i▁ p
ir it</w>
e▁ g
▁adv anced</w>
▁M ex
t oms</w>
i▁n k</w>
ew ork</w>
▁increa ses</w>
th▁ en</w>
▁mark eting</w>
▁fac tors</w>
th ree</w>
am ▁p
▁sever e</w>
▁advant age</w>
Ch ang</w>
▁St ar
per s▁on</w>
▁2 7</w>
7 0</w>
▁Or ganiz
ur i▁ty</w>
t ant</w>
el e▁c
▁ar ts</w>
con s▁
▁publ ished</w>
▁S en
re ign</w>
ha▁ d</w>
g res
ad ed</w>
▁B udd
▁2 1st</w>
m ar▁
▁sm art</w>
in▁ ed</w>
S u▁
D ong
▁ref und</w>
▁f ar
ic o</w>
a▁ tions</w>
▁all ows</w>
w oo</w>
ten tion</w>
s ee</w>
mo ti▁on</w>
f ive</w>
▁special ized</w>
▁arriv ed</w>
▁pr elimin
▁concer n</w>
▁believ ed</w>
▁ itan</w>
re▁ e</w>
m a▁n
b▁ een</w>
▁trust ee</w>
ic ul
di ff
In v
▁requ ire</w>
vi ews</w>
ep tion</w>
b ody</w>
ma j▁
▁In t
eo k
▁th roughout</w>
om p
e▁ d
T h▁
▁warr ant</w>
▁des pite</w>
m i▁ll
ea▁ se</w>
ch ar▁ge</w>
S▁ t
▁’ ’</w>
sum m▁it</w>
h ee</w>
anc ing</w>
▁victi m</w>
▁spen d</w>
▁al tern
or g
mon y</w>
e i▁gn</w>
be▁ t
a▁n k</w>
▁plat form</w>
or ies</w>
j▁ ect</w>
sp▁ec ial</w>
▁in ▁
▁bir th</w>
▁M arket</w>
▁B yung</w>
j i▁n</w>
▁tick et</w>
▁p aying</w>
▁&a p▁os;s</w>
in form▁
el▁ l</w>
d ire▁c
M o▁on</w>
▁consum ption</w>
▁b rought</w>
▁E l
ym b
y r
end ly</w>
▁pro duce</w>
▁F air</w>
si▁ ve</w>
ri es</w>
▁prom oting</w>
A c
▁ser ve</w>
▁s e▁
▁grea tly</w>
R ep
▁B usiness</w>
▁p etition</w>
row▁ th</w>
m▁ ed</w>
l▁ ow</w>
is▁ ion</w>
ilit a▁ry</w>
▁e ating</w>
tit ude</w>
ash ion</w>
▁m ist
ri age</w>
ov ement</w>
9 ▁
▁effici ent</w>
▁cont ains</w>
▁G im
h▁ im</w>
c ri▁
ag ▁es</w>
▁ordin ary</w>
▁m eal</w>
▁complet ely</w>
▁n orthern</w>
▁gir l</w>
▁fil ms</w>
▁cont est</w>
▁Pen insula</w>
▁H a</w>
v ey</w>
f i▁n
es▁ t
b illi▁on</w>
ag s</w>
2 4</w>
▁week end</w>
▁war m</w>
▁enterpr ises</w>
m ain</w>
Coun c▁il</w>
▁fir s▁t</w>
▁enter ing</w>
▁bea uty</w>
tr a
r u▁
e▁ w</w>
ech n▁
▁suffer ed</w>
▁endeav or</w>
▁ tion</w>
pr ac
ac ity</w>
▁sc reen</w>
▁e p
▁Un ion</w>
per c
▁m id</w>
▁improv ing</w>
▁Mot or</w>
▁rev ital
j eong</w>
ag ers</w>
▁sub way</w>
▁sett lement</w>
▁l i
▁5 00</w>
▁leg isl
▁Ir an</w>
offic i▁al</w>
es t▁ed</w>
▁lec ture</w>
▁f ish</w>
p▁ eop▁le</w>
o▁r k</w>
igh▁ ts</w>
▁revis ed</w>
▁h ▁
ff er</w>
▁2 7th</w>
s o▁n</w>
ch an▁ge</w>
▁disab ilities</w>
an o</w>
▁s occer</w>
r ying</w>
es sive</w>
▁G w
ar▁ ds</w>
▁prof essor</w>
▁ob serv
▁m ountain</w>
▁del eg
▁comp uter</w>
produc ▁ts</w>
kno▁ w</w>
comm ittee</w>
▁di agnos
▁C or
res pec
1 1
▁signific antly</w>
▁develop ing</w>
c ol
▁hos ted</w>
ta ek</w>
o▁n t</w>
▁M ountain</w>
meas ures</w>
i a▁l</w>
▁Pro motion</w>
▁ o▁t;</w>
l evel</w>
be▁ tw
W or
▁t op
tur ing</w>
s o
n in▁g</w>
c▁ y</w>
8 ▁
▁finis hed</w>
q ▁
j u▁st</w>
ff s</w>
elec omm
b usiness</w>
▁2 5th</w>
su▁ l
ili ar</w>
est ock</w>
▁suffer ing</w>
l ines</w>
k m</w>
ati o▁n
M E
▁pro por
▁em p
gre di
com ▁e</w>
▁serv ed</w>
▁W omen</w>
res t</w>
▁avo id</w>
▁an ti</w>
ta x
den uclear
▁occ ur</w>
▁broad cast</w>
ign ed</w>
▁bus y</w>
oo ks</w>
m ir
i▁c s</w>
g▁ es</w>
fam i▁ly</w>
em erg
▁there of</w>
▁consid er</w>
s▁ ocial</w>
eo l</w>
b▁ l
G en
▁Kor▁ ea</w>
▁&a pos;
pos es</w>
▁im possible</w>
▁elec tronic</w>
▁res ervation</w>
▁inc urred</w>
ro▁ om</w>
im chi</w>
ca▁ se</w>
Artic▁ le</w>
▁ven ue</w>
▁fix ed</w>
▁1 4
re p
fin a▁ncial</w>
be▁c ause</w>
▁r ose</w>
▁ear n
▁S ports</w>
ch i▁ng</w>
▁c row
▁F l
em ory</w>
▁f ru
▁U lsan</w>
n o
j▁ ob</w>
i▁ z
▁j oin</w>
▁ch ann
▁sugg ested</w>
▁m ean</w>
pol iti
m o▁n
S ch
▁r ob
▁decrea se</w>
▁&apo▁s ;</w>
wh a</w>
tur ed</w>
Pro▁ v
Ch airm▁an</w>
▁sur pr
▁prelimin ary</w>
▁1 4th</w>
u▁ s</w>
▁t rees</w>
▁pi ec
▁new sp
ir▁ ec
i ate</w>
eg et
▁sp eak</w>
▁mod ern</w>
▁k inds</w>
▁b all</w>
▁N o.</w>
i▁ a</w>
▁join ed</w>
▁Com plex</w>
v▁ is
▁un able</w>
▁m os
▁subsid ize</w>
▁f alls</w>
am p▁
▁cal cul
▁H all
▁9 th</w>
w ea
h▁ ee</w>
ev e▁nt</w>
b eh
a h</w>
B r
ver si
i▁ od</w>
▁prepar ation</w>
▁perform ed</w>
▁in gredi
▁chec ked</w>
▁F ederation</w>
tr i▁es</w>
arm ac
▁lo ts</w>
▁dro p</w>
K RW</w>
G w
▁expec tations</w>
▁block chain</w>
c ing</w>
▁for ced</w>
▁e ye</w>
▁sp ent</w>
▁N av
s ons</w>
Jap ane▁se</w>
▁prac tic
▁ac tor</w>
wi▁th out</w>
t▁ ure</w>
oy ang</w>
▁f illed</w>
▁Em ployment</w>
st u▁d
or▁ ld</w>
l arg
▁vol ume</w>
▁broadcas ting</w>
vis it▁ed</w>
b▁ u
▁dam aged</w>
▁back ground</w>
ig ning</w>
1 7</w>
▁s il
▁lawmak ers</w>
▁foll ows</w>
▁dec line</w>
ur o</w>
n ame</w>
h▁ av
d a▁ys</w>
▁enter tainment</w>
▁e d
▁activ ity</w>
w er▁e</w>
l et</w>
Se ung</w>
▁h usband</w>
r un</w>
p▁ ly</w>
pol i▁cy</w>
ist ance</w>
▁rem ains</w>
d▁ ong</w>
▁dep uty</w>
b▁ r
1▁ st</w>
▁win ning</w>
▁appro priate</w>
▁D el
b ec▁
▁w eight</w>
▁prof its</w>
n e</w>
gen er▁al</w>
J e▁
▁st anding</w>
▁S ou
say in▁g</w>
▁m ale</w>
ith er</w>
en om
ear▁ ly</w>
▁in ev
▁D ay</w>
lea d▁er</w>
▁trans l
▁m ix
▁confir m</w>
im po▁r
▁t r▁
▁dis cipl
t▁h an</w>
h ouseh
▁s i</w>
▁respec tively</w>
▁coun ty</w>
ig n▁
be ing</w>
▁f r▁
▁discus sion</w>
▁W ar</w>
s ing
prof ess▁or</w>
▁proc eed</w>
▁J eon</w>
▁Br az
▁3 0th</w>
y et</w>
ic ious</w>
▁y oun
▁caus ing</w>
▁Fac ebook</w>
▁C o</w>
il m</w>
▁f oot
oo gle</w>
ag ▁ed</w>
▁inten tion</w>
▁d eep</w>
▁13 th</w>
o▁ od</w>
i▁ st
il▁ y</w>
b ook</w>
▁lear ned</w>
u▁ l</w>
tific ial</w>
▁underst anding</w>
▁t rou
▁rel ig
us ▁e</w>
ter n▁
▁my self</w>
▁cl aim</w>
▁a thl
▁Q u
pol icy</w>
n ecess
ea▁r s</w>
med ium</w>
d ly</w>
ch▁ er</w>
▁proc essing</w>
▁Americ a</w>
Ch in
▁v ill
▁ex clus
att le</w>
coun try</w>
comp a▁n
▁p re</w>
m em▁
▁str ugg
▁sing er</w>
▁foreign ers</w>
▁dev ices</w>
▁ch oice</w>
ong ly</w>
b as▁
fir e</w>
▁wea k</w>
wit h▁in</w>
des ign
▁budg etary</w>
▁Environ ment</w>
ma▁ in</w>
i ences</w>
▁expl ain</w>
▁d ang
ex ▁p
d▁ en</w>
atis tics</w>
▁strateg y</w>
▁sc ore</w>
▁Se jong</w>
th qu
is ▁h
N ati▁onal</w>
▁di plom
▁H ave</w>
▁1 6th</w>
et ers</w>
tro l</w>
en ge</w>
ast es</w>
C o▁m
▁recru itment</w>
th rough</w>
o▁ y
a▁l l
ar ks</w>
K▁ RW</w>
▁s ource</w>
r▁ eal
p ut</w>
aem un</w>
▁Ch eon
y ond</w>
ur y</w>
ol v
in t</w>
Y e
▁b i
▁Des pite</w>
iter ia</w>
fo▁ ur</w>
f oc
e z
c u▁r
al s▁o</w>
▁happen ed</w>
▁Wh ite</w>
▁believ es</w>
▁S ong
▁Ch ang
l o▁ng</w>
c el
▁st able</w>
▁innov ation</w>
▁con tribute</w>
▁ap artments</w>
um b
ove▁r n
et er</w>
eor ological</w>
el ong</w>
▁se em</w>
w at
form s</w>
c▁ ome</w>
appl ic
▁occ urs</w>
▁m ulti</w>
▁cl ass
yp e</w>
p▁l an</w>
l ook</w>
il ▁e</w>
▁P al
▁B i
s▁ c
sch ed
bo ard</w>
▁k ept</w>
▁d ead
sib▁ le</w>
l ar▁ge</w>
Ad ministr
▁w rote</w>
▁bro ther</w>
▁In st
▁2 6</w>
▁1 6
n a▁m</w>
e tr
buil ding</w>
▁do g</w>
▁difficul ty</w>
st a▁n
pro▁ ve</w>
f a▁c
ea s▁
▁Sing apore</w>
inv est▁
J in</w>
▁direc tors</w>
t▁ ur
ic a</w>
▁w alk</w>
▁d inner</w>
▁bri ef
um n</w>
s▁h ould</w>
der ship</w>
ag o</w>
Ch o</w>
▁th or
▁conduc ting</w>
▁concer ned</w>
▁P re
qual i▁ty</w>
a▁f t▁er</w>
ard less</w>
C om▁
und er▁
s▁t em</w>
i▁ se</w>
c ustom
c oh
▁shar ed</w>
▁ap prec
▁ach ieve</w>
▁1 .
sti c</w>
i▁ rd</w>
il ian</w>
▁w ear</w>
d▁ uri▁ng</w>
cooper ati▁on</w>
op in
▁stor ies</w>
▁pl ants</w>
▁T ourism</w>
go ing</w>
f ree</w>
ar tens</w>
V ▁
▁wr it
▁wor ried</w>
▁g ar
ty▁ pe</w>
m y
▁meaning ful</w>
w on
B ar
▁c alls</w>
c il
al ty</w>
R us
▁g ets</w>
▁2 6th</w>
tr al</w>
bu i▁l
b ri
▁w earing</w>
▁bor n</w>
▁B ased</w>
▁&a pos▁;</w>
ye o</w>
stitu▁ te</w>
▁shar ehol
▁cor respon
uc h
o▁ d</w>
i▁ ss
an c▁es</w>
▁depos it</w>
▁b ag</w>
▁N a</w>
m ut
h wa</w>
▁opport unities</w>
▁off er</w>
▁R ev
og s</w>
oti onal</w>
im p
devel op▁
▁L ife</w>
▁H uman</w>
ra is
▁F ire</w>
s▁ho▁ uld</w>
r▁ eg
memb ers</w>
▁respon d</w>
▁V illage</w>
p ow▁er</w>
p ast</w>
Metropol ▁itan</w>
▁ro oms</w>
yn asty</w>
eo s</w>
a▁ ir</w>
P en
▁sh or
▁lea ving</w>
▁expen sive</w>
▁comm ission</w>
▁anim als</w>
▁ad mission</w>
▁Rus sian</w>
w▁h i▁ch</w>
offici a▁ls</w>
i ors</w>
▁in frastructure</w>
v e▁
s▁ up
&ap▁os▁; ll</w>
▁W ould</w>
▁An aly
construc ti▁on</w>
ain▁ ed</w>
▁jud ge</w>
▁iss u
▁L ine</w>
con fir
1 4</w>
▁w el
n y</w>
ff▁ ice</w>
al es</w>
▁2 8th</w>
mon▁ th</w>
ac qu
▁l ived</w>
▁l isten
▁de ep
▁coun ter
un d▁
r on
offic ial</w>
▁gr and
n at▁ional</w>
gover▁n ment</w>
al▁ l
ag r
▁n ice</w>
▁f ol
▁dis eases</w>
▁d ay
▁Fr ance</w>
▁2 8</w>
a▁ id</w>
S ung</w>
M ed
▁f oods</w>
p at
D o</w>
▁s un
▁acc ept</w>
dis cus
ap s</w>
▁ro ads</w>
▁mis sing</w>
▁cons erv
▁c over</w>
▁c ateg
▁W oo</w>
par t</w>
▁Prosec utors</w>
maj▁ or</w>
jec ▁t</w>
devel o▁p
▁tempor ary</w>
▁nation wide</w>
m ▁e</w>
▁w ind
▁l iter
▁fe eling</w>
▁ch ea
t aining</w>
▁dec ide</w>
▁academ ic</w>
te▁ st</w>
ay er</w>
▁subpar agraphs</w>
▁n amed</w>
▁loo ked</w>
▁cooper ate</w>
tric ity</w>
oc ation</w>
h a▁lf</w>
c ou▁n
▁v o
▁comp et
▁Y i</w>
sy▁ st
inc rea▁se</w>
ol▁ l
g▁ un</w>
ug s</w>
u ven
pro▁ duc
fi▁ ve</w>
Bus▁ an</w>
▁decrea sed</w>
i▁n ess</w>
c ept</w>
▁In ter
yph oon</w>
id ▁e</w>
▁t en</w>
▁hand le</w>
▁compl etion</w>
ch i▁l
&ap▁os;▁ ll</w>
w omen</w>
p e▁n
ot o</w>
om y</w>
n ight</w>
mp ;</w>
fl o▁or</w>
ex es</w>
&a▁ mp;</w>
▁M yung</w>
tiv ity</w>
pro mo▁
g h▁
▁symp toms</w>
▁ex ec
intro duc
▁v ote</w>
ur i</w>
it▁ h
▁ind ex</w>
▁con ver
▁B ri
id ays</w>
g a▁me</w>
ci enti
▁represent atives</w>
▁pati ent</w>
▁g old</w>
▁R ule</w>
w ar
t own</w>
r ent</w>
▁techn ologies</w>
▁requir es</w>
k i</w>
e e▁n</w>
ab ilities</w>
▁report ers</w>
▁dig ital</w>
▁d ead</w>
▁Met eorological</w>
▁Ar t</w>
w ar</w>
pur su
per for▁m
m ul
le▁ ft</w>
comm od
▁t o
▁R oh</w>
▁B ur
ist en</w>
▁prom oted</w>
▁A I</w>
meas ur▁es</w>
itt e▁e</w>
av es</w>
▁Tai wan</w>
we▁ en</w>
g e▁t</w>
do▁ es</w>
c itiz
auth or
▁rec on
▁pus h</w>
▁2 2nd</w>
w▁ ork</w>
t▁h is</w>
sup port</w>
stitu tional</w>
r▁ ev
d om</w>
ou T
l ear
▁repor ter</w>
▁acc ur
▁G erman</w>
▁Ch urch</w>
in f
ic ro
at e▁s</w>
fo▁ od</w>
R eg
Jap an</w>
▁res tor
entur y</w>
▁extr a</w>
▁competi tiveness</w>
▁appl ying</w>
t al▁
s ex
pp er</w>
pol i▁ce</w>
Gyeo▁ng gi</w>
f▁ ir
▁se emed</w>
▁judg es</w>
▁cr iminal</w>
▁c at
in ally</w>
ex ecu
ar ti
▁streng th</w>
r▁ i</w>
a es
Gover n▁or</w>
▁st opped</w>
▁rul es</w>
w▁ ell</w>
w▁ a▁s</w>
g e
e f▁f
&ap▁os▁ ;s</w>
z a</w>
t in
T echn
wor ki▁ng</w>
es us</w>
ch i▁ef</w>
ri▁ ed</w>
en g▁
▁r ail
▁interpre ted</w>
t e▁rs</w>
st ate</w>
be▁tw een</w>
N or
▁med icine</w>
▁dis pl
▁b aby</w>
▁Am id</w>
▁2 3rd</w>
▁1 ,000</w>
▁ en</w>
y▁ ing</w>
l arge</w>
&a▁po▁s ;m</w>
resid ents</w>
kno▁ wn</w>
eval u
e ti▁ng</w>
G u
▁cr yptocurr
▁app earance</w>
pp ed</w>
o▁ p</w>
jec ted</w>
c e▁r
▁sh ort
▁par liam
▁brea k
i▁s h</w>
T ae</w>
. 0</w>
resid ▁
re tur
et▁ c.</w>
ent e▁r</w>
be fore</w>
an ning</w>
▁qu anti
ed n
b▁ al</w>
▁smartph one</w>
▁pain ting</w>
▁gr ounds</w>
▁S w
ot es</w>
f ication</w>
▁s eat</w>
▁reti rement</w>
w r▁
o▁s s</w>
m ilita▁ry</w>
h ab
▁st yle</w>
▁U. S.-
om▁ en</w>
S a▁m
C it▁y</w>
▁j ourn
▁S ohn</w>
▁P ort</w>
t ains</w>
pol i▁
o▁ v
n orm
ar▁ k</w>
ac▁ k</w>
▁charac ters</w>
fin anci▁al</w>
b it</w>
a▁ st</w>
▁aut onomous</w>
unicip al</w>
rou▁ p</w>
l ic</w>
8 0</w>
▁s ides</w>
▁oper ator</w>
▁design ation</w>
▁Y outh</w>
ti m▁
o g</w>
inc r▁
1 4
▁norm al</w>
▁mer ch
ul atory</w>
l in
a h
Min▁ is▁
▁res erv
▁k il
▁ass essment</w>
s▁ chool</w>
o▁c k</w>
hy un</w>
devel ▁
A ff
▁w all</w>
▁9 0</w>
c enter</w>
ro▁ ad</w>
iv▁ il</w>
▁2 4th</w>
r an
n a▁
el ines</w>
▁soldi ers</w>
▁execu tives</w>
▁cr iteria</w>
▁aff ected</w>
s▁ m
pro m▁
e▁ un</w>
en tion</w>
▁any one</w>
▁K y
th us
all ey</w>
▁r ent</w>
▁E specially</w>
s▁ec ond</w>
id en▁t</w>
ic▁ ation</w>
es ti▁
c ultur▁al</w>
▁f an</w>
u tr
▁sol ution</w>
▁injur ed</w>
▁b a▁
▁Un til</w>
▁i sn</w>
▁cl early</w>
▁anim al</w>
t▁ es</w>
sen i▁or</w>
l ot</w>
iti o▁n</w>
H an
▁or ders</w>
w in</w>
u ce</w>
▁sud denly</w>
▁s u▁ch</w>
▁experi enced</w>
on s
n▁ o</w>
m▁ arket</w>
▁sh op</w>
▁dev ice</w>
▁comp r
▁as king</w>
▁Gyeong sang
ye o▁ng</w>
re duc
N am
A gric
▁up on</w>
▁tas k</w>
▁complain ts</w>
par t
en t▁ed</w>
d u▁r
amp ion
▁s now</w>
▁ab use</w>
ess▁ es</w>
▁S ocial</w>
s▁ y
an▁ ds</w>
▁for ec
▁Con f
por t▁ed</w>
▁Mat ters</w>
n or
aw ay</w>
▁favor ite</w>
▁Sp eaker</w>
tis h</w>
t ot▁al</w>
atur day</w>
▁urg ent</w>
▁tick ets</w>
▁lun ch</w>
op port
s oon</w>
im m
a▁ pp
▁offic es</w>
▁independ ence</w>
▁dr inking</w>
▁ac tors</w>
▁G oogle</w>
w are</w>
er ▁ed</w>
A T</w>
▁volunt eer</w>
▁re view
▁elec tions</w>
vi▁ ew</w>
t▁h s</w>
f ea
er o</w>
t▁h em</w>
r▁ ef
pers on
i▁ ld</w>
er ate</w>
en der</w>
eas ▁e</w>
d re▁
be▁c aus▁e</w>
be▁ st</w>
N▁ ew</w>
▁rem ember</w>
▁r ain
in▁ es</w>
ati▁ ons</w>
▁tit le</w>
▁shar es</w>
▁clas si
▁N owon</w>
dis c
cla▁ ss</w>
p y</w>
oc i▁
l▁ ea
f ast</w>
▁tour ist</w>
▁st ated</w>
wo▁ o</w>
t▁ op</w>
pro ject</w>
ex hib
ec ti▁on</w>
ch arge</w>
▁t ext</w>
▁app ear</w>
▁1 7
su▁ b
m i▁n</w>
be▁t we▁en</w>
▁som etimes</w>
▁fea tures</w>
▁expres s</w>
▁dr ug</w>
▁At tention</w>
o▁ o</w>
facil iti▁es</w>
ef ully</w>
J u▁
▁syst ems</w>
▁m oun
t able</w>
st art</w>
par ticip▁
n eung</w>
▁sh ape</w>
▁r i</w>
▁g ives</w>
▁Sm all</w>
t a▁l
rea l
en ever</w>
Manag eme▁nt</w>
▁sp rea
m▁ ade</w>
▁offic ers</w>
▁farm ing</w>
▁en ded</w>
sec ond</w>
s eas</w>
am ic</w>
S S</w>
w▁ il▁l</w>
▁form ulate</w>
▁civ ic</w>
m id
la▁r gest</w>
i▁ th</w>
der ing</w>
▁guarant ee</w>
▁expen d
▁Mus eum</w>
t▁ ;</w>
som e▁
in▁ a</w>
evel s</w>
G overnment</w>
▁sam ple</w>
▁mul ti
▁applic ants</w>
ev ▁er</w>
c irc
▁ren ew
▁ob tain</w>
a▁n ge</w>
▁sec ured</w>
▁inter esting</w>
▁dou ble</w>
▁P ri
re▁ sid
h e▁r</w>
est ment</w>
app y</w>
2 3</w>
▁S oo</w>
hy u▁n</w>
d▁ y</w>
▁beg in</w>
▁Coun ty</w>
▁B TS</w>
s ch▁
r▁ el
r it
ang ed</w>
▁t ree</w>
▁mean time</w>
▁Hy e</w>
law mak
is t▁
ec onom
am b
▁grad ually</w>
▁eff ort</w>
th a▁n</w>
pe▁ ople</w>
entr▁ al</w>
all eg
▁chec king</w>
p ons</w>
atten ti▁on</w>
at trac
S ang</w>
Ch oi</w>
▁w it
▁ab ol
th▁ rou▁gh</w>
▁cou ple</w>
▁bas eball</w>
ou te</w>
c oo
▁expl an
▁S ea</w>
rec omm
f un▁
en vir
u ts</w>
en▁ g
enom en
▁wh e▁re</w>
▁sc ale</w>
▁m eat</w>
▁caus es</w>
si▁ an</w>
g ot</w>
1 6
▁Mal ay
me eting</w>
Univer sit▁y</w>
▁fin ally</w>
▁fig ure</w>
▁curr ency</w>
in eering</w>
▁sc en
▁cam era</w>
iti me</w>
inform ati▁on</w>
il ing</w>
D ay</w>
▁Austral ia</w>
c u▁l
▁sign s</w>
par tic
&▁apo▁s ;</w>
▁u l
▁pr ison</w>
ten ed</w>
p i▁ng</w>
ev e▁n</w>
▁m il
▁Canad a</w>
vis▁ it</w>
perform an▁ce</w>
e w▁
▁c ell</w>
v ehic
p▁ ut</w>
d ents</w>
Se▁ oul</w>
▁th rea
▁exchang es</w>
▁Ac tor</w>
P ubl▁ic</w>
▁sen ding</w>
buil di▁ng</w>
a▁ ti▁ons</w>
app ear
▁m ental</w>
▁camp aign</w>
in clu▁
2▁ nd</w>
▁ship ping</w>
l a
c▁l ud
M ay</w>
▁th er
▁coun ties</w>
pos▁ ;t</w>
in fl
▁pl astic</w>
▁dis play</w>
▁Serv ices</w>
op h
o ong</w>
iz i▁ng</w>
h ard</w>
comp▁ an
b i▁ll
▁wat ched</w>
▁reg ister</w>
▁l iqu
▁argu ed</w>
▁o ▁n</w>
▁M ovement</w>
▁H eung</w>
▁B u
ic ide</w>
i ans</w>
e▁ an</w>
c eme▁nt</w>
a▁ tive</w>
Hy un</w>
▁ha ven</w>
▁surr ounding</w>
▁l isten</w>
yong yang</w>
he▁ e</w>
foll owi▁ng</w>
ati z
▁t een
▁notif ied</w>
▁for ces</w>
▁des cri
▁cr imes</w>
t▁ en</w>
o▁ und</w>
g row▁th</w>
A s</w>
▁tal king</w>
▁pro per</w>
▁func tions</w>
▁conc ept</w>
p al</w>
1 ,
▁re ducing</w>
▁m ag
▁Y u</w>
thea st</w>
sm all</w>
re p▁
pu▁ blic</w>
pr▁ iv
diff▁ er
▁youn ger</w>
▁u pper</w>
▁P omp
▁cons ecutive</w>
▁be yond</w>
▁T wo</w>
▁B as
ti▁ cs</w>
r ig▁ht</w>
p a</w>
con tr▁
M in</w>
▁sou thern</w>
▁sl ow
▁ar tificial</w>
sur ▁
if th</w>
▁re pres
▁mach ine</w>
▁ex cluded</w>
▁elec tricity</w>
▁Fr ench</w>
th day</w>
p yeong</w>
oy al</w>
▁Phil ipp
an s▁
▁ch icken</w>
▁U S
▁/ /</w>
tic ally</w>
l y
investig ati▁on</w>
i able</w>
e t▁her</w>
▁semiconduc tor</w>
▁on es</w>
▁Exper ts</w>
me tics</w>
im port
h▁ ard</w>
e▁r ed</w>
▁v ia</w>
▁s ymb
ur s
is cal</w>
cl as
▁g ather</w>
▁f o▁r</w>
sit u▁
ret a▁ry</w>
▁pl eas
▁experi ences</w>
▁O ther</w>
f ur
▁sub st
ul▁ ts</w>
stitu tion</w>
as k</w>
▁v ulner
ir es</w>
b it
▁view ers</w>
▁respec t</w>
▁f ish
▁cor rect</w>
pa▁r t</w>
f▁or mer</w>
▁th eater</w>
▁J esus</w>
it▁ ional</w>
expec ted</w>
ar di
▁sub jects</w>
▁S ch
▁Rep ublic</w>
▁K o▁
in ks</w>
f▁ er
ed ding</w>
▁In surance</w>
oper ati▁on</w>
cl ose</w>
P▁ ar
▁pun ishment</w>
▁int elligence</w>
▁Th anks</w>
▁Super visory</w>
ou g▁h</w>
l ig
g en▁
fam ily</w>
▁cap acity</w>
in nov
chil dren</w>
▁wal king</w>
▁phot ograp
▁c ore</w>
m as</w>
el lec
ar e▁as</w>
▁viol ation</w>
▁s in▁ce</w>
▁kinderg artens</w>
▁i ce</w>
▁gu ide</w>
▁el se</w>
▁draw n</w>
▁con st
say i▁ng</w>
g roup</w>
L i▁
▁guid ance</w>
▁elec ted</w>
▁Indi a</w>
ph one</w>
ac ted</w>
E n▁
og ue</w>
l▁ ocal</w>
indus t▁ry</w>
e k
t ;</w>
su▁ re</w>
serv ice</w>
con n
ag re▁
Y eong
Ass emb▁ly</w>
▁st and</w>
▁col ors</w>
▁In formation</w>
ver▁ y</w>
v id
ho▁ w</w>
a▁b out</w>
▁plac ed</w>
▁max imum</w>
▁imm igr
▁design ate</w>
▁del iver</w>
r▁ et
ong ol
on ally</w>
fac tion</w>
el ec▁
▁integr ated</w>
▁continu ously</w>
▁ad d</w>
ad or</w>
▁u ses</w>
▁fal se</w>
▁E ach</w>
em o▁ny</w>
com▁ m
▁s quare</w>
▁purch ased</w>
▁inst all</w>
▁al bum</w>
▁L aw
▁2 9</w>
st at▁
o x</w>
Ass embly</w>
▁ref ug
▁bal ance</w>
thus i
pres s</w>
ft e▁r</w>
▁suspen ded</w>
▁exc essive</w>
▁2 9th</w>
fi eld</w>
f oll▁
c▁ al</w>
ateg y</w>
&ap▁os; ▁s</w>
▁sp eech</w>
▁Be fore</w>
pos ▁ed</w>
d eb
as ion</w>
7 ▁th</w>
▁trad ing</w>
▁neigh bor
▁fir m</w>
▁d e▁
▁b oy
▁Lea gue</w>
me an
L ea
▁reflec ted</w>
▁accep ted</w>
w ee
ou▁ t
b ud
▁f ashion</w>
▁dep artments</w>
▁Ear lier</w>
p ass
▁acc um
fi▁ nd</w>
de▁ v
ay▁ ing</w>
▁y ea▁r</w>
▁th er▁e</w>
▁fres h</w>
▁entr ust</w>
▁b ut
w▁h ere</w>
pl▁ ay</w>
d ate</w>
T C</w>
▁w a▁s</w>
▁pre fer
▁con struc
work e▁rs</w>
iz e▁d</w>
aj or</w>
A c▁t</w>
▁st one</w>
▁se x</w>
▁ingredi ents</w>
▁D o
t echn▁
il▁l ion</w>
ead quarters</w>
Ch eong
▁M iddle</w>
▁F oll
&apo▁s ;▁s</w>
▁s ister</w>
▁con cluded</w>
▁201 0</w>
▁m emory</w>
▁M in
▁201 1</w>
s eason</w>
etropol it▁an</w>
▁techn ical</w>
▁o r▁
▁discus sed</w>
▁c ul
▁H ospital</w>
sh ow</w>
l eft</w>
▁rep air</w>
▁On ly</w>
▁H otel</w>
wh e▁n</w>
s ong</w>
pro jec▁ts</w>
ne▁ ed</w>
ent ually</w>
a▁l ly</w>
au d</w>
▁cryptocurr ency</w>
▁altern ative</w>
ang ju</w>
▁pro b
prov i▁de</w>
▁t ▁h
▁histor ical</w>
▁e x</w>
f▁ ac
con trac
b a▁ck</w>
▁t own</w>
▁independ ent</w>
▁dam ages</w>
z be
th i▁rd</w>
res ear
l▁ aw</w>
▁passeng ers</w>
und am
tr a▁
lo b▁al</w>
comm unic
C orpor
▁deb t</w>
▁E very
wor ks</w>
sh▁ ow</w>
pro d▁uc
fi▁ re</w>
e▁c k</w>
exp▁ ec▁ted</w>
dro gen</w>
▁pres entation</w>
▁law suit</w>
▁inv est</w>
▁comm emor
ev e▁ry</w>
ca▁ me</w>
ar▁ t
▁law s</w>
▁ass ociation</w>
ea▁ ce</w>
comm itt▁ee</w>
▁dr aw</w>
s ent
on▁ d</w>
ill a</w>
▁subsid y</w>
▁reg ulation</w>
▁Th ose</w>
▁Indones ia</w>
c▁ on▁
▁resid ential</w>
▁m ot
▁liv estock</w>
▁dead line</w>
▁con ▁
▁Mon day</w>
su▁p port</w>
inter ▁
im pl
gr y</w>
▁T em
produc ts</w>
ma j
f a▁m
f all</w>
E D</w>
▁men u</w>
f e
Educ ati▁on</w>
▁frequ ently</w>
p en</w>
air ▁
▁see ing</w>
▁con tr
un ately</w>
ub s</w>
or e
o f
necess a▁ry</w>
i et</w>
▁repor ting</w>
▁c over
▁Star ting</w>
ne▁ w</w>
n a▁me</w>
▁out door</w>
▁c alling</w>
k e▁
a▁ ch</w>
al l▁y</w>
ag ement</w>
T ▁h
L e▁e</w>
K yung</w>
D ae</w>
▁war ning</w>
▁alleg ations</w>
u ti
se▁l f</w>
i ance</w>
ei▁ r</w>
In stitu▁te</w>
▁prac tical</w>
w at▁er</w>
r▁ es▁
n a</w>
d e▁d</w>
▁t el
▁r ich</w>
▁com posed</w>
▁am end
▁Bri tish</w>
ut ers</w>
su▁ m
o▁ ther</w>
og▁ y</w>
S p▁
▁import ance</w>
▁enh ance</w>
▁dem ocr
▁compr ised</w>
ur ▁e</w>
iti gation</w>
is try</w>
e▁n tial</w>
▁wor ker</w>
▁Organiz ation</w>
if f</w>
at ched</w>
▁ass ault</w>
sti t
m▁ e
l a▁nd</w>
▁reg ardless</w>
▁l ines</w>
▁join tly</w>
▁deb ate</w>
us▁ ic</w>
is s▁
f ou▁nd</w>
distr i▁ct</w>
c▁ r
coh ol</w>
ar ity</w>
▁lea dership</w>
▁conn ected</w>
p▁ s</w>
ol ic</w>
is sue</w>
adv ant
B l
▁tas ks</w>
▁fl ex
▁exc eed</w>
▁Kor eas</w>
ut u▁re</w>
est▁ ic</w>
▁r um
un t▁il</w>
j ud▁
c ong
Tr ans
▁v eget
▁rem ain</w>
▁pl en
▁fl ow</w>
▁dis tributed</w>
▁approv ed</w>
l▁ ot</w>
i▁s it</w>
▁be hav
▁aw are</w>
or ation</w>
i ents</w>
▁s yn
▁discus sions</w>
▁cam p</w>
un t</w>
ist an</w>
▁G oyang</w>
qu ir
m▁ ore</w>
it ch
id den</w>
2 7</w>
▁s eas
▁en forcement</w>
▁acc used</w>
s ea
ant i</w>
3 0
▁sent enced</w>
▁ar rive</w>
y▁ eon</w>
n ew
int▁ er
con cer
an am</w>
H an</w>
▁n ames</w>
▁dist ance</w>
▁disp ute</w>
▁C oll
▁Analy sts</w>
sum mit</w>
O ffic
▁m ark</w>
▁I T</w>
▁G eum
w▁ ere</w>
us eok</w>
tiv ▁e</w>
b a▁ll</w>
▁r an</w>
▁co ast</w>
s atis
l ate</w>
b▁ an</w>
▁sh r
▁at tract</w>
x im
sh op</w>
as t▁er</w>
▁sent ence</w>
▁mos tly</w>
▁doc tor</w>
▁b ic
l aun
▁ph enomen
▁G ir
▁3 5</w>
pos ing</w>
o▁m en</w>
iv ision</w>
in k
ig▁ h</w>
for t</w>
ME s</w>
▁l ose</w>
at ures</w>
am ily</w>
▁re ply</w>
a▁t a</w>
▁individ uals</w>
▁K T</w>
▁C r
indus ▁
at ri
Y oo</w>
Min▁is▁ try</w>
▁reg ard</w>
▁effici ency</w>
▁dest ro
▁c ▁
▁applic ations</w>
sp e▁c
l as▁t</w>
g▁ o</w>
G▁ yeong
y▁ le</w>
t w▁
m i</w>
d ata</w>
an▁ ies</w>
S tr
▁with draw
▁t ired</w>
▁l isted</w>
▁convers ation</w>
▁J ud
▁Fr iday</w>
▁s ave</w>
▁pre t
▁pot ential</w>
▁judg ed</w>
▁con v
wor▁ k</w>
s afe▁ty</w>
proc ess</w>
it ting</w>
bl ▁e</w>
a▁ se</w>
al o▁ng</w>
A ss▁
▁th anks</w>
▁r ural</w>
▁f air
ro ad
p eo▁ple</w>
em pl▁
chit ec
b ok</w>
Y ong</w>
▁transac tion</w>
▁ev ening</w>
▁Mex ico</w>
med ic▁al</w>
i o▁us</w>
dec id▁ed</w>
d riv
ad ded</w>
2 8</w>
▁m anner</w>
▁I tal
s al</w>
i▁ ded</w>
a▁l so</w>
aud i</w>
S p
▁syst em
▁en try</w>
ou p</w>
l ive</w>
a▁ ting</w>
G un</w>
▁establish ing</w>
▁A fr
th o▁se</w>
o f▁
le▁ ad</w>
h▁ a▁s</w>
fo▁ reign</w>
▁suspen sion</w>
▁bro ken</w>
▁adver ti
sal ▁es</w>
r un
o▁ t▁;</w>
ospit als</w>
o oting</w>
e▁ ven</w>
▁J oon</w>
y a▁ng</w>
tric ts</w>
ol l</w>
h ou▁se</w>
c o▁r
c er▁
am m
▁suspec t</w>
oc ▁al</w>
ep ren
▁un i
▁th ous
▁rece ives</w>
▁eff ec
▁aim ed</w>
emb ers</w>
Se o</w>
▁enjoy ed</w>
▁discipl inary</w>
s▁h a▁ll</w>
pursu a▁nt</w>
per form▁
e▁c t▁ed</w>
▁finis h</w>
t▁ ax</w>
manag▁ ement</w>
id enti
he▁ re</w>
ac ▁e</w>
&▁apo▁s ;s</w>
▁resol ve</w>
▁prosec utor</w>
▁comm itted</w>
tak ▁e</w>
k ▁e</w>
ail and</w>
▁transac tions</w>
▁sup plem
▁newsp aper</w>
▁equ ipped</w>
▁entr ustment</w>
ul f
is ure</w>
iber ation</w>
elec tion</w>
C o▁
▁id eas</w>
▁e co</w>
per i▁od</w>
ok yo</w>
estab li▁
d▁ le</w>
ap ers</w>
▁out standing</w>
y o▁ng</w>
row n</w>
qu ar
ed er
ac ▁h
▁rec overy</w>
▁ad ding</w>
w ol</w>
p▁ ay</w>
o▁w s</w>
n u▁
ev e▁r</w>
at tr
st a▁
for ei▁gn</w>
ea s▁ed</w>
e ver
and al</w>
ain t
P r
O ffice</w>
▁trea ted</w>
▁ob tained</w>
▁cour ses</w>
▁On ce</w>
p ay</w>
inter e▁st</w>
f ying</w>
▁pus hed</w>
▁I l
o▁n ly</w>
▁resc ue</w>
▁mus eum</w>
▁grad es</w>
▁X i</w>
ro▁ up</w>
edn esday</w>
▁ap p</w>
▁5 G</w>
offic ▁
▁suspic ion</w>
▁recomm endation</w>
▁fl owers</w>
▁certif ication</w>
▁arti cles</w>
▁W est</w>
res sed</w>
as▁ s
▁fl o
▁fir ms</w>
▁exten ded</w>
▁canc el</w>
▁Chr ist
t▁ ee</w>
me▁ ans</w>
develop ment</w>
airper s▁on</w>
Se ong
▁attrac ting</w>
▁atten ding</w>
▁Ap ple</w>
u▁ ce</w>
fac ▁
u▁n e</w>
us ual</w>
rec▁ e
n▁ el</w>
▁trans ferred</w>
▁lawmak er</w>
includ ing</w>
▁tr ack</w>
▁run s</w>
▁C C
w▁ in</w>
a▁ ve</w>
▁s tic
▁quanti ty</w>
▁i sland</w>
▁d rea
▁H er
▁B aek
w a▁rd</w>
h alf</w>
G y▁
▁str ongly</w>
▁s etting</w>
▁rap id</w>
▁pro spec
p ati
m other</w>
ar eness</w>
Y oon</w>
Un iversity</w>
201 9</w>
▁fail ure</w>
▁R yu</w>
▁Pomp eo</w>
▁A ud
w in
t og▁
par tic▁
itiz en</w>
▁kinderg arten</w>
▁bl ue</w>
u▁m p</w>
ta i▁n
re▁ al</w>
ot▁ her</w>
in▁ al</w>
▁ma il</w>
▁f ▁
▁expend iture</w>
▁ess ential</w>
▁compet ent</w>
▁En ergy</w>
wh y</w>
s ol▁
re▁ as
d▁r en</w>
▁l evels</w>
▁Hall yu</w>
ri er</w>
pro f▁
okes man</w>
f▁ orm
ent a▁ry</w>
co▁m m
▁r oute</w>
▁over come</w>
▁Foll owing</w>
tr a▁de</w>
n e▁ss</w>
▁min im
▁lat est</w>
▁K OS
▁H eadquarters</w>
▁2 ,
u an</w>
s▁ pec
p .</w>
an y▁
I N
▁star s</w>
▁hom es</w>
me a▁ns</w>
be▁c▁ ause</w>
C l
▁inter ests</w>
▁child care</w>
▁applic ant</w>
▁S e</w>
▁Philipp ines</w>
op ▁e</w>
ib ility</w>
fer en▁ce</w>
f ic</w>
ea l▁th</w>
c ar▁
B usan</w>
▁wor ▁
▁corpor ations</w>
d an▁ce</w>
2 00</w>
▁un d▁er</w>
▁l oved</w>
▁encour age</w>
▁An other</w>
t▁ eam</w>
fr on
ex per▁
adem y</w>
U n▁
▁vulner able</w>
▁subpar agraph</w>
▁c o▁n
▁ ju</w>
par ed</w>
V iet
▁im posed</w>
▁hel ps</w>
▁Pro ject</w>
pen s
om in
c▁ om▁
▁st ations</w>
▁s af
▁re b
▁g olf</w>
▁b u▁t</w>
inc es</w>
i ers</w>
S▁ .</w>
2 5
u al▁ly</w>
tea▁ m</w>
m i▁t</w>
P er
▁st ar</w>
▁min ute</w>
▁bel ong
▁Sing er</w>
s ocial</w>
represent ati▁ve</w>
m▁ s</w>
id▁ ent</w>
a i
G overn
C▁h o</w>
▁S aturday</w>
▁Pyeong taek</w>
sur y</w>
si x</w>
prov inci▁al</w>
ash ing
an d▁ed</w>
K▁or e▁a</w>
p op</w>
och o</w>
e▁r ▁e</w>
c▁ omm
▁propor tion</w>
▁Se ong</w>
ex ec
t en▁
s epar
or ig
f▁ or▁
en d▁ed</w>
▁del icious</w>
▁car rying</w>
▁Chil dren</w>
t▁ im
id e▁d</w>
et in▁g</w>
▁mod els</w>
▁judg ment</w>
▁Wh ich</w>
▁P eace</w>
t ingu
t ec
st o▁ry</w>
st a▁r
g i▁
e▁x p
▁sp ot</w>
▁ran ked</w>
▁S ub
▁200 9</w>
investig ation</w>
d om▁
3 1</w>
▁sal ary</w>
▁C ar
s oci
i▁ tion</w>
g▁ lobal</w>
epren e
M ar▁
res ear▁ch</w>
receiv ▁ed</w>
ch e▁
c anc
av el</w>
ad y</w>
▁com fortable</w>
m er
m ent▁al</w>
h old</w>
fr o▁nt</w>
employ ment</w>
▁per c
▁m ur
▁announ ce</w>
t▁ ern
k▁ er</w>
i▁ nd</w>
ad diti
▁vid eos</w>
▁tr uth</w>
▁stat utes</w>
▁o bl
▁ac compan
▁G ames</w>
Gyeong g▁i</w>
4 5</w>
▁stor age</w>
▁sl ightly</w>
▁prem ium</w>
▁f ight</w>
▁B aek</w>
p▁ eopl▁e</w>
2 6</w>
▁sp ea
▁sh ot</w>
▁p sych
cons ult
b eg▁
▁proced ure</w>
▁p utting</w>
▁ex tent</w>
H ong</w>
19 ▁
▁sp irit</w>
▁Kak ao</w>
ub▁ lic</w>
perc e▁nt</w>
hel▁ d</w>
grow th</w>
R e▁
▁dr unk</w>
▁Rep .</w>
▁Mot ors</w>
per iod</w>
oc king</w>
an t▁s</w>
▁mar riage</w>
z en</w>
it or
b i
▁sit u
r em▁
j e▁c
▁pri ority</w>
▁ear thqu
▁d ▁
▁bus es</w>
▁ab s
g ang</w>
e▁ st▁
ell o</w>
as an</w>
▁de ems</w>
▁c entury</w>
ou ldn</w>
e▁ ad</w>
; ▁
h um
fun c
armac eu
▁shar p</w>
▁lic ense</w>
▁fin ding</w>
l a▁te</w>
K ang</w>
▁val ues</w>
▁su itable</w>
▁poll ution</w>
▁ev entually</w>
es s▁ed</w>
as ts</w>
▁w ages</w>
▁offic ially</w>
▁car eful</w>
▁bott om</w>
▁20 s</w>
sel ect▁ed</w>
pre▁ ss</w>
S outh</w>
▁hol idays</w>
▁confir mation</w>
▁ch e
▁affili ated</w>
▁S audi</w>
perform ance</w>
n eed</w>
e ti▁
activ ▁
▁concentr ation</w>
ol es
ind▁ us
aw ei</w>
Gyeong sang
▁s inc
▁happ en</w>
ag▁ ainst</w>
ag g
▁hel ped</w>
▁ag ed</w>
▁Bo ard</w>
w ise</w>
serv ▁
oh ang</w>
i▁ sh
S pec
Res ear▁ch</w>
n atur
j o</w>
f arm
▁rul ed</w>
▁fea ture</w>
w a▁r
s▁ ity</w>
resp on▁
▁rea dy</w>
▁p ower
▁organiz e</w>
▁mix ed</w>
▁c enter
▁att ack</w>
▁Cheon an</w>
▁19 7
▁1 0,000</w>
w▁h at</w>
clud e</w>
▁str ess</w>
▁c ooking</w>
pur ch
m att
▁Budd h
t▁w een</w>
lis t</w>
er▁ gy</w>
em ical</w>
M▁ ay</w>
Jap▁ an</w>
J u▁ng</w>
▁m ayor</w>
▁Med ical</w>
▁In d
v ill
shi▁ p</w>
In t
Comm ittee</w>
▁predic t</w>
▁h owever</w>
▁b ull
▁b ed</w>
▁Th ree</w>
▁200 8</w>
u▁ ed</w>
our self</w>
ac h▁ed</w>
▁s eek</w>
▁p ort</w>
▁mar ried</w>
▁exec ution</w>
▁brief ing</w>
v i▁c
techn olo▁gy</w>
t ar
ouT ube</w>
oc▁ r
d ea▁
bir th</w>
▁cos metics</w>
▁Se ok</w>
▁Braz il</w>
us h
p ur▁
on er</w>
ac coun
▁am id</w>
u tions</w>
reg ul▁ar</w>
o▁ u</w>
ic▁ le</w>
i eld</w>
ci▁ l</w>
atten d▁ed</w>
as ters</w>
W or▁ld</w>
T r▁
▁strength ening</w>
▁natur ally</w>
▁main tained</w>
kn own</w>
cr aft</w>
a▁ tio▁ns</w>
K y
3 5</w>
▁ac commod
▁M y
s cor
pr in
ent ally</w>
as s▁
an ak</w>
P yeong
▁fig ures</w>
▁don ation</w>
▁dis hes</w>
t▁ ak
me▁ et</w>
h w▁an</w>
e▁ ld</w>
expres s▁ed</w>
P▁ op</w>
3▁ rd</w>
▁pas sing</w>
▁disclos ure</w>
▁C ong
v o
is▁ ts</w>
A s▁
▁m ob
▁emerg ing</w>
▁Chungch eong</w>
▁Ar ti
th i▁ng</w>
in te▁r
ij ing</w>
▁real ize</w>
▁r ule</w>
w a▁y</w>
um▁ an</w>
h▁ ere</w>
exper ien▁ce</w>
I m
Ch▁ in
▁t yphoon</w>
▁mon it
▁comp ly</w>
it es</w>
Chin e▁se</w>
▁wea k
▁comm ents</w>
ri v▁
per ty</w>
l▁ i
at e▁ly</w>
an aly
C ou▁rt</w>
▁politi cs</w>
▁o kay</w>
▁b ▁y</w>
▁D ru
h▁ it</w>
eff ec
ab led</w>
Chung ch
▁w oul▁d</w>
▁allow ances</w>
▁Sun day</w>
g▁ o
Sam su▁ng</w>
▁conserv ative</w>
▁attrac ted</w>
un j
stit utes</w>
r ban</w>
o k▁
d▁ i
clus ion</w>
aug ur
P ri▁
▁b ags</w>
v ious</w>
um ed</w>
Je ju</w>
▁Olymp ics</w>
v e▁ry</w>
e t▁ed</w>
e b▁
▁exper t</w>
▁Econom y</w>
o▁ ur
on ce</w>
mak er</w>
ig ▁n</w>
ati v▁e</w>
al ent</w>
▁plan e</w>
▁lec tures</w>
▁contrac ts</w>
▁bl ock</w>
nam ese</w>
hous i▁ng</w>
f av
▁rem ov
▁l ov
▁institu te</w>
▁grow n</w>
pr▁iv ate</w>
op en</w>
on able</w>
o b▁
iv i▁ng</w>
ec onomy</w>
d▁ ec
d i▁n
▁app ears</w>
▁En ter
uc tion</w>
s onal</w>
port ers</w>
ol den</w>
ic▁ y</w>
c▁ rea
▁sprea ding</w>
▁auth or</w>
▁ag ree</w>
▁ag ing</w>
▁R el
▁N ews</w>
▁M ongol
proc e▁ss</w>
foll owing</w>
S un</w>
▁obl ig
▁di verse</w>
y▁ o</w>
sign ific
pl a▁ns</w>
invest me▁nt</w>
Pres▁ ident</w>
▁recogn ition</w>
▁m aster</w>
▁c ool</w>
m▁ ake</w>
me▁ d
m u▁ch</w>
li o▁n</w>
b y
an der</w>
al ize</w>
F ac
▁pro hib
▁differ ences</w>
▁cons ulting</w>
▁an x
▁achiev ed</w>
▁Y eon
▁N ext</w>
▁Jeoll a</w>
is su▁
er ea
d id</w>
activ iti▁es</w>
▁c l▁
▁ab▁ out</w>
s .</w>
ra▁ p
matt e▁rs</w>
icul um</w>
▁w asn</w>
▁ba▁ sed</w>
▁Pa ju</w>
▁H ae</w>
p un
m▁ et</w>
in▁ ue</w>
d el▁
6 5</w>
▁wor ry</w>
▁perf ect</w>
▁go als</w>
▁aw areness</w>
▁af ter
▁Tem ple</w>
▁T eam</w>
w▁h ile</w>
wor d</w>
od ies</w>
im b
e▁l op
ea l▁ed</w>
b▁ ed</w>
&▁a p▁os;s</w>
▁g un</w>
▁fin ance</w>
▁dem anded</w>
▁amend ment</w>
pol ice</w>
fo▁r mer</w>
exc e▁
et▁ y</w>
▁cl in
▁J oo</w>
pl a▁n
m▁ ark
chil dr▁en</w>
c ulture</w>
am ▁es</w>
Y ang</w>
1▁ 0</w>
▁coll abor
▁benef it</w>
▁K o</w>
pr▁ om
on l▁y</w>
manag ement</w>
et te</w>
comp reh
av ing</w>
S T</w>
N a▁
D irec
▁l itigation</w>
▁im ported</w>
▁car ds</w>
y in▁g</w>
il ot</w>
e b</w>
ad es</w>
▁complain t</w>
▁canc eled</w>
▁Gang neung</w>
s ized</w>
pr o▁m
g ence</w>
ai▁r m▁an</w>
ach ing</w>
N▁ ational</w>
▁sec tors</w>
▁emerg ed</w>
y▁ u</w>
under▁ st
g▁ ood</w>
g▁ er</w>
for ▁e</w>
f air</w>
ari ffs</w>
al i
al ax
▁he▁ ad</w>
▁h ospitals</w>
▁fr anch
u▁ es</w>
unic ations</w>
os ▁e</w>
et t▁er</w>
bo▁ th</w>
b ack
E conom
▁ep is
▁b ills</w>
l ove</w>
g i▁ve</w>
a f▁f
▁jud icial</w>
▁h urt</w>
▁compl exes</w>
▁be er</w>
▁P yongyang</w>
▁O kay</w>
▁G or
w▁h y</w>
t▁h ey</w>
ordin ate</w>
il at
i os
ess ors</w>
e ducation</w>
diff▁ ic▁
at e▁
▁won der</w>
▁ref ers</w>
▁perform ing</w>
▁athl etes</w>
▁V en
▁Ko▁ rea</w>
re▁c e
qu esti
i▁ re</w>
b on</w>
a▁c y</w>
av o
an▁ s
F ound
▁stud ies</w>
▁sem ester</w>
uc ks</w>
on ial</w>
enti ment</w>
ed eral</w>
ang ing</w>
▁parliam entary</w>
▁offer ed</w>
▁guid elines</w>
▁em b
▁bu ying</w>
▁W estern</w>
om b</w>
mir ae</w>
g y
f eel</w>
at u▁re</w>
L oc▁al</w>
▁unf air</w>
▁th ank</w>
▁identi fied</w>
▁f oot</w>
ugg ish</w>
ti ous</w>
st▁ ud
promo▁ te</w>
e ys</w>
art ups</w>
▁oper ators</w>
sub sid
st ore</w>
p ot
det erm
c ultu▁re</w>
▁sur face</w>
z ▁ed</w>
el ings</w>
com p▁l
F A</w>
D e▁
▁re fer
th e▁rn</w>
l e
▁par ti
▁: :</w>
ust ain
t a</w>
ro▁ u
re ds</w>
p aid</w>
▁mus ical</w>
▁disp atched</w>
▁a id</w>
y ed</w>
sum er</w>
s un▁g</w>
▁phenomen on</w>
▁F ilm</w>
sel ▁
ro▁ le</w>
ou▁r s</w>
l ong
C or
▁sk y</w>
▁orig inally</w>
▁effici ently</w>
st y▁le</w>
si on
e▁c ted</w>
air ▁s</w>
▁hy drogen</w>
▁gr ant</w>
▁dri ve</w>
▁Han wha</w>
▁A ll
tor ▁s</w>
p eopl▁e</w>
in▁ g
g ive</w>
at▁ ing</w>
▁w o▁r
▁adv ice</w>
t▁h ▁e</w>
ti▁ cle</w>
o▁r m</w>
ic ▁s</w>
f it</w>
201 7</w>
0 .
▁D ynasty</w>
▁C ivil</w>
tiv ▁
or▁ ts</w>
incl▁ud i▁ng</w>
ed om</w>
az a</w>
▁us age</w>
▁s igning</w>
▁re ward</w>
▁ex posed</w>
▁claim s</w>
▁b and</w>
▁A si
▁&ap▁os ;</w>
the▁ m</w>
se▁ ok</w>
m ob
▁t ests</w>
▁public ly</w>
▁or▁ der</w>
▁explan ation</w>
▁Th ailand</w>
▁H o</w>
stud ▁
nam ent</w>
bas ed</w>
▁inconven ience</w>
▁Sh im</w>
pres i▁d
mon ey</w>
ar r▁
▁rem arks</w>
▁d ea
▁crea tive</w>
ti se</w>
re▁ ad</w>
rec e▁
j oi▁nt</w>
ho▁ ur</w>
ho▁ on</w>
▁schol ar
▁inev itable</w>
▁ac ting</w>
▁J un</w>
tr ea
prov ince</w>
pr ice</w>
i▁ d</w>
en▁ ds</w>
c▁ ase</w>
V ice</w>
▁st atistics</w>
▁low est</w>
▁dis posal</w>
▁P as
▁Christi an</w>
tim es</w>
ner ship</w>
i▁n g
ind ivid
f ar</w>
ap o</w>
9 0</w>
u▁ sed</w>
op ol
i▁t tee</w>
ir ation</w>
ch a▁r
ay in▁g</w>
as ted</w>
1▁ 00</w>
▁sl ow</w>
▁m e▁
▁dri vers</w>
w elfa▁re</w>
o▁u gh</w>
op▁ en</w>
ed y</w>
▁ad ults</w>
▁Christ mas</w>
pr i▁ce</w>
jo▁ bs</w>
c amp
ar eas</w>
▁fac tor</w>
▁aw arded</w>
▁Viet namese</w>
ow e▁r</w>
m il
ea vy</w>
e ffici
▁R ights</w>
la▁ ted</w>
for ce</w>
crim ination</w>
b e▁rs</w>
activ ities</w>
S ing
▁kn ew</w>
▁for um</w>
ic ed</w>
gr▁ am</w>
c▁ ar</w>
a▁ ke</w>
Aff ai▁rs</w>
▁im ages</w>
s▁ ti
l ab▁or</w>
hea l▁th</w>
▁c overed</w>
t▁ ers</w>
n etw
in o</w>
e▁ al
c a▁r
3 2</w>
▁th in▁k</w>
▁pre gn
▁pat h</w>
▁chall enge</w>
▁b ▁
▁ass et</w>
▁Ar ts</w>
▁A ut
p m</w>
j eon</w>
Je oll
▁i gn
▁ar my</w>
▁Agric ultural</w>
rel ev
p▁ol icy</w>
D ef
▁pus hing</w>
▁pay ments</w>
▁cont aining</w>
▁E very</w>
o▁ ve</w>
oc ated</w>
increa s▁ed</w>
bass ador</w>
▁pr ime</w>
▁m ill
▁con tributed</w>
x es</w>
tr aini▁ng</w>
play ▁ed</w>
m e▁n
il s</w>
H o▁ng</w>
▁v i▁sit</w>
▁re organiz
▁m ▁
▁l ux
▁b an
▁S NS</w>
▁G o</w>
▁20 20</w>
w age</w>
l i▁ng</w>
bec o▁me</w>
P▁ rov
H igh</w>
▁cro ss
▁G lobal</w>
▁D oes</w>
su gg
s ay</w>
m at▁ch</w>
lik ▁e</w>
a ight</w>
2 9</w>
▁teen agers</w>
▁t ea</w>
▁smo oth</w>
▁no tic
▁m outh</w>
▁g ain</w>
s ee
K i</w>
▁vo ices</w>
▁s un</w>
▁requ ests</w>
▁G iven</w>
ym ore</w>
l ov
ge▁n eral</w>
e e▁d</w>
app▁ ly</w>
administr ati▁on</w>
▁r out
▁he▁ ld</w>
▁confl icts</w>
z es</w>
m is▁
l ead
iz ▁ation</w>
ea▁ d</w>
ar ian</w>
201 6</w>
▁n early</w>
▁l i▁
▁dr ugs</w>
ti le</w>
sti t▁
og r
i e▁n
h on
ang h
T A</w>
▁un cer
▁s ear
▁cor ruption</w>
▁comb ined</w>
▁J o</w>
s▁ um
l abor</w>
en ▁s</w>
dom est▁ic</w>
a▁n d
▁supervis ion</w>
▁str ike</w>
▁p eti
▁det ected</w>
▁app eal</w>
t ings</w>
or r▁y</w>
c and
▁cooper ative</w>
v e▁n
l igh
b▁ efo▁re</w>
am ework</w>
▁sw eet</w>
▁inv ested</w>
r ▁e</w>
g▁ ue</w>
eng th</w>
comm un
▁e sc
▁2 5
w it▁h
p h▁
ol s</w>
j ae</w>
it▁ e</w>
id ity</w>
ib▁ le</w>
g lob▁al</w>
bor n</w>
adminis tr▁
a it</w>
4 ▁th</w>
▁wor se</w>
▁f arm</w>
rec ent▁ly</w>
k il
at▁ ive</w>
at in▁g</w>
▁j ustice</w>
▁grea ter</w>
▁conven ient</w>
thr▁ ough</w>
t om
su▁ pp
ong no</w>
i▁ r</w>
d▁ es
b al
▁w il▁l</w>
ou s▁
il d
i ums</w>
Sa▁m sung</w>
&▁a pos▁;s</w>
▁inv ited</w>
z z
w ood</w>
u▁ ps</w>
und reds</w>
re f▁
in come</w>
▁tro ops</w>
▁o ▁
▁fe els</w>
▁big ger</w>
wor▁ ld</w>
stand i▁ng</w>
ig n▁ed</w>
b us</w>
▁purch asing</w>
▁oper ations</w>
wor king</w>
v i▁ng</w>
tw▁ o</w>
ther wise</w>
ol▁ ds</w>
k e▁d</w>
jus ▁t</w>
ip e</w>
con sec
▁sup ports</w>
▁dec laration</w>
▁al cohol</w>
ne▁ ar</w>
j obs</w>
f a▁ns</w>
diff▁ic▁ ult</w>
ch ang</w>
W h
H ee</w>
▁w▁ ith</w>
▁relig ious</w>
▁offer ing</w>
▁f ifth</w>
▁d ry</w>
▁canc ell
▁H ak</w>
▁ ati▁on</w>
v ac
ist ant</w>
h and
g▁ u
con stru▁c
at▁ or</w>
I ▁t</w>
▁w o▁uld</w>
▁requir ements</w>
▁eas ier</w>
▁beg un</w>
▁G eun</w>
r ad
mi▁ ss
med ia</w>
Y ong
▁spec ified</w>
▁pret ty</w>
▁dro pped</w>
▁cont ain
str o▁ng</w>
ee d▁ed</w>
Sh in</w>
M a▁r
C ooper
▁sh oes</w>
▁ref er</w>
▁innov ative</w>
▁d ogs</w>
▁ch ose</w>
▁br ands</w>
▁N or
▁H ar
g▁ row
f ail
diffic u▁lt</w>
c a▁l
▁g rew</w>
▁cul tiv
▁ac ts</w>
▁T okyo</w>
▁ at▁ion</w>
▁su icide</w>
▁real ized</w>
▁govern ed</w>
▁fl ower</w>
▁dis tricts</w>
▁car efully</w>
▁ ted</w>
t alk</w>
or d▁
n ecessary</w>
ic e▁s</w>
i e▁d</w>
hy e</w>
ens us</w>
ann i▁ng</w>
▁pr a
▁m and
▁dec or
▁commer ci
▁Pen sion</w>
▁M e
ten ing</w>
st u▁
o il</w>
e on▁g</w>
W on</w>
▁w ake</w>
w er</w>
um i</w>
l▁ s</w>
ci t▁
ath e▁r</w>
M e▁
▁vic tory</w>
▁sim ply</w>
▁exper im
urs day</w>
tak i▁ng</w>
m▁ ed
mat er
liv i▁ng</w>
in e
er ship</w>
P I</w>
N ational</w>
▁t ariffs</w>
▁su ffer</w>
▁evalu ated</w>
▁emp ty</w>
▁diplom atic</w>
▁I CT</w>
t o
succ ess
ough ly</w>
no▁ w</w>
n et</w>
▁t ons</w>
▁r iver</w>
▁d ed
▁b ▁e</w>
us ▁t</w>
gr am</w>
cl aim
b▁ ack</w>
qu e</w>
ef s</w>
cr imin
▁wh enever</w>
▁comb ination</w>
▁S y
▁10 0,000</w>
re▁ ase</w>
rec ogn
i▁ st▁
enti a</w>
ch eo▁n</w>
▁clean ing</w>
▁adverti sing</w>
▁H ere</w>
▁Con struction</w>
▁3 0s</w>
y on▁g</w>
j a</w>
is s</w>
ev▁ el
es▁ ts</w>
ashing ton</w>
O f▁f
Ch▁in ese</w>
3 00</w>
▁sud den</w>
▁law yer</w>
▁far ms</w>
▁det ail</w>
▁charg ed</w>
ro l</w>
is ition</w>
i ously</w>
b e▁r</w>
b ad</w>
S m
▁spen ding</w>
▁s ad</w>
▁exten sion</w>
▁com position</w>
▁C ol
▁3 1st</w>
zbe k
poli▁ tical</w>
m▁ en</w>
ill eg
atiz ation</w>
▁star ts</w>
▁smartph ones</w>
▁respon dents</w>
▁resear chers</w>
▁bl ocked</w>
▁alleg ed</w>
▁Inv estment</w>
▁C ooper
▁&a▁ pos;</w>
u ted</w>
prof essi
mil▁ itary</w>
establis h
d a▁ta</w>
b enef
T X</w>
R S</w>
▁th▁ ere</w>
▁p ▁
▁Hw as
ta▁ e</w>
rec ru
l▁ ing</w>
enc ing</w>
d▁ idn</w>
▁exam ine</w>
won do</w>
si l</w>
relev a▁nt</w>
it e▁d</w>
i ary</w>
cl ass</w>
Gen er▁al</w>
▁g ained</w>
▁f iscal</w>
▁at titude</w>
com b
▁sm all
▁shar ply</w>
▁initi al</w>
▁In depend
▁Comp any</w>
is h▁ed</w>
app ed</w>
▁m eals</w>
▁in form</w>
m ark</w>
ha▁ v▁e</w>
em▁ ber</w>
d eg
az on</w>
I S</w>
▁un less</w>
▁competi tive</w>
▁Hu awei</w>
im ming</w>
f am▁
E l
▁su it</w>
▁f ear</w>
▁S MEs</w>
▁Agric ulture</w>
se▁r vice</w>
ou▁ ng</w>
if ying</w>
ic i▁es</w>
▁ven ture</w>
▁pic k</w>
▁h iring</w>
▁W o
▁Pol icy</w>
prov in▁ce</w>
pre vi
e▁ me▁nt</w>
b oth</w>
O h</w>
▁top ic</w>
▁r ide</w>
▁los ses</w>
▁b onds</w>
▁arti st</w>
▁all owing</w>
▁5 2</w>
▁ ic</w>
v ar▁
re▁ qu
o tions</w>
c ol▁
20▁1 8</w>
▁ver sion</w>
▁tal ent</w>
▁man ip
▁e cos
▁G reen</w>
s▁ ub
o d▁
at h</w>
Gye on▁g
▁scor ed</w>
▁p age</w>
▁m om</w>
▁hon or
▁ab and
we▁ l
o▁ ffice</w>
op e▁r
ok i▁ng</w>
ici ary</w>
ho▁ pe</w>
cer emo▁ny</w>
c an
am▁p ;</w>
ac tive</w>
C up</w>
A ir
&▁apos; t</w>
▁monit oring</w>
▁m ass</w>
p oint</w>
m at▁
ho▁ ld</w>
activ e▁ly</w>
Kor ea▁n</w>
▁c af
t▁ io▁n</w>
t▁ ions</w>
s ince</w>
ll ed</w>
con d</w>
▁wind ow</w>
▁earn est</w>
▁apprec iate</w>
os en</w>
a▁ tion▁s</w>
▁t elecomm
▁fi ref
▁en thusi
▁br ain</w>
▁Gyeong nam</w>
v e▁r
t o▁ry</w>
c rea▁
▁sp ons
tur ▁es</w>
spec ial
f▁ ri
enter pris
bo▁ dy</w>
▁respon ded</w>
▁concentr ated</w>
ut▁ es</w>
ul ati▁on</w>
▁wh e▁n</w>
▁trav eling</w>
▁pen alty</w>
▁passeng er</w>
▁exclus ive</w>
▁Y ouTube</w>
we▁ ek</w>
op eni▁ng</w>
a▁n n
▁t esti
▁fu el</w>
▁f undam
▁deg ree</w>
▁cons ists</w>
▁conf idence</w>
▁C itizens</w>
s▁ erv
pa▁ st</w>
in ati▁on</w>
e very
bus i▁ness</w>
alax y</w>
▁y ourself</w>
▁ch ar
▁ab ou▁t</w>
▁Cheong ju</w>
▁An y</w>
ret u▁r
ot▁ ed</w>
me th
i▁ zed</w>
isten ce</w>
int▁ ern
bl ed</w>
▁r aw</w>
▁pack age</w>
▁M i</w>
w a▁ge</w>
u▁n der</w>
si▁ k</w>
sh ▁e</w>
sh ow▁ed</w>
it ations</w>
a th▁er</w>
E un</w>
▁listen ing</w>
▁O per
r▁eal ly</w>
h eal
▁lea ds</w>
re▁ me</w>
r ights</w>
pr▁ il</w>
o▁ ver</w>
co▁ st</w>
Un ive▁r
Gwang ▁ju</w>
Com p
▁manag ing</w>
▁e ase</w>
▁continu ous</w>
so▁ on</w>
re▁ ss</w>
r at
p o
or ▁ed</w>
in▁ ess</w>
ch▁ ang
ac tion</w>
I T</w>
▁prom ised</w>
▁gu ess</w>
▁P ower</w>
▁Mus ic</w>
▁Ch useok</w>
w a▁ys</w>
st age</w>
p▁ eo▁ple</w>
f re
curr e▁nt</w>
a ff▁
I C
▁decl ared</w>
▁c o▁m
▁ann ually</w>
▁D ivision</w>
▁0 .
tu p</w>
reg is
f▁ r
fac ilities</w>
a▁ ss
al ist</w>
air ed</w>
J eong</w>
▁re place</w>
▁d ivid
▁curr iculum</w>
▁con tribution</w>
▁clos ely</w>
▁Malay sia</w>
▁Gr and</w>
▁3 2</w>
ti on▁al</w>
s ing▁
rou g▁h</w>
pr▁ oc
l ic
iz ▁e</w>
ig ar
d ir▁ec
▁fam iliar</w>
▁e ither</w>
ou sing</w>
g u▁
dr aw</w>
de▁ f
b▁ as
aff ai▁rs</w>
Pr▁ ov
Prov i▁nce</w>
▁sh ooting</w>
▁d ong</w>
u to</w>
m om
m et</w>
ar e▁a</w>
all en</w>
Sup po▁rt</w>
M W</w>
▁wh om</w>
▁sing ers</w>
tor ies</w>
m inal</w>
is ti▁ng</w>
fi▁ l
f ul▁
e▁ am</w>
d es▁
com fortable</w>
appoin t▁ed</w>
Un it▁ed</w>
▁sl uggish</w>
▁g one</w>
wit ter</w>
un ior</w>
uc le▁
nu▁ clear</w>
me et</w>
ic it</w>
fo▁r m
en h
employ me▁nt</w>
d▁ em
b ors</w>
ap prov
J ang</w>
▁tal ked</w>
▁sec urities</w>
▁eng aged</w>
s▁ ch
emb e▁r</w>
b▁ le</w>
▁s eal</w>
▁no ise</w>
▁k imchi</w>
▁c ode</w>
▁b re
▁T rea
▁L aw</w>
t▁ e▁d</w>
sus pec
op positi▁on</w>
d ang</w>
b ooks</w>
D iv
▁un like</w>
▁re fr
▁d ark</w>
▁Ex cept</w>
si▁ ble</w>
m m</w>
ic a▁l</w>
i o▁n
es tr
ell a</w>
ea▁ s</w>
b▁ ig</w>
aut om
▁v ess
▁th ough
▁inc en
▁fre ely</w>
▁An san</w>
to▁ o</w>
te▁ nd</w>
particip at▁ed</w>
o thing</w>
es ▁e</w>
▁y ellow</w>
▁multi ple</w>
▁mist ake</w>
▁l ess
▁disc overed</w>
s▁h ip</w>
se▁ as</w>
s ett
pa▁ id</w>
int e▁n
ed ing</w>
ap y</w>
a ud▁
Prov▁ ince</w>
J une</w>
A si▁an</w>
▁suspic ions</w>
▁recogn ize</w>
▁lea ves</w>
▁earthqu ake</w>
▁ac tions</w>
▁H ello</w>
w ant</w>
tr eat
plo y▁
f ee▁
ex ▁t</w>
enter ▁ed</w>
d on</w>
al▁ ity</w>
agre eme▁nt</w>
T▁ r
S ou
G▁yeong gi</w>
▁intro ducing</w>
▁intern et</w>
▁ill eg
▁e g
▁c ross</w>
▁ad just</w>
▁R oad</w>
v▁ al</w>
ri f
c e▁d</w>
ad ministration</w>
▁st eel</w>
▁st abil
▁situ ations</w>
▁h ike</w>
▁c afe</w>
▁autom atically</w>
u ff
te▁ e</w>
sa▁ ng</w>
osp ital
on ▁ed</w>
ay i▁ng</w>
A I</w>
▁w i▁th</w>
▁vill ages</w>
▁v oting</w>
▁trans par
▁d rew</w>
ult an
pos ite</w>
ob by</w>
il▁ ls</w>
cu▁r rent</w>
con fl
N ov
J▁ ap
▁m unicipal</w>
▁c atch</w>
rel ated</w>
g u▁n</w>
estiv als</w>
bo x</w>
Intern ation▁al</w>
2 8
▁lin ked</w>
▁Ta x</w>
▁Str eet</w>
st▁ it
en c▁y</w>
ci en▁ce</w>
ci a▁l</w>
b udget</w>
a▁r ed</w>
▁S ang
star t▁ed</w>
st a▁te</w>
o▁ ffic
herein a▁ft▁er</w>
ablis h
K▁ or▁
▁l ease</w>
▁e th
▁Wh o</w>
▁V arious</w>
re ti
pp ing</w>
ol og▁y</w>
g n</w>
f ind</w>
c ur▁
OS CO</w>
B l▁
▁sec uring</w>
▁fac ts</w>
▁f aster</w>
▁L ike</w>
▁C ap
▁Be ijing</w>
ri ers</w>
p▁ ol▁
p i▁c
er able</w>
a e▁
▁f ill</w>
▁f ails</w>
▁M embers</w>
▁J ung
▁Inst ead</w>
res taur
m▁ er</w>
it ch</w>
fi e▁ld</w>
c▁h eon</w>
au ce</w>
▁s u▁
▁invest ments</w>
▁dep ar
▁Tur key</w>
v▁ ey</w>
res ol
pr▁ oc▁
pos▁ ;
par ▁ed</w>
mak ▁e</w>
is ional</w>
ec on▁
doc um
aw n</w>
ass ment</w>
al▁ ue</w>
1 7
▁lea gue</w>
▁fi erce</w>
▁b attle</w>
▁b all
▁Nav er</w>
▁Ab ove</w>
ti s</w>
th▁ a▁t</w>
se o▁k</w>
i▁l ity</w>
a▁n ts</w>
as▁ te</w>
▁sh ow
▁los ing</w>
▁Sec urities</w>
u ting</w>
o▁ ver
in et</w>
et▁ ing</w>
▁wid ely</w>
▁For est</w>
tur n</w>
s▁h all</w>
s a▁n</w>
prosec ▁u
particip a▁te</w>
ograp h
oc c▁
m id</w>
j oy</w>
igh ters</w>
h a▁rd</w>
dis tribu
com es</w>
c iv▁il</w>
M y</w>
▁fos ter</w>
▁expres sion</w>
▁S ystem</w>
st op</w>
s ome
s l▁
re x
r ai▁
l▁ evel</w>
ion a▁l</w>
id▁ eo</w>
N am</w>
N .</w>
M us
▁F ree</w>
s▁ i</w>
o thers</w>
g e▁t
f ather</w>
e▁ ll</w>
d ou
al▁ ls</w>
C ente▁r</w>
2 6
▁over l
▁extr eme</w>
▁exc av
▁bor der</w>
▁H ang
ul ted</w>
t▁ ic</w>
m▁ in
gover n▁or</w>
J u▁ne</w>
C o</w>
B us
. .</w>
▁th▁ e▁re</w>
▁hand ling</w>
▁chall eng
q▁ u▁
le▁ ad
co▁n t
J uly</w>
C o▁un
▁im ag
▁Y un</w>
▁K ia</w>
▁B el
y ear▁s</w>
s▁ ta▁
rel ation
oo thly</w>
iti on▁al</w>
▁hand ed</w>
▁H on
▁ d</w>
z ▁
ti▁ n▁g</w>
serv ic▁es</w>
oti c</w>
k er▁s</w>
gener ati▁on</w>
20▁ 0
▁hum an
▁dismis sed</w>
▁am oun
t▁ic le</w>
po▁ se</w>
kn owl
h▁ igh
h ot</w>
Or ganiz
▁wor st</w>
▁replac ed</w>
▁prov inces</w>
▁p ort
▁custom ized</w>
▁adop ted</w>
▁H ol
v en▁
spec ▁
re▁ ss
r a</w>
o▁ un▁
im pro▁ve</w>
ic op
T ra▁
En▁ g
▁or dinance</w>
▁exemp tion</w>
▁Par ticip
▁P ohang</w>
▁Chang won</w>
▁200 7</w>
wh eth▁er</w>
s eok</w>
pr▁ ob
off▁ icial</w>
mor ning</w>
iti v
if ts</w>
form er</w>
f e▁r
establis h▁ed</w>
ed▁ ge</w>
an im
a th▁
E ▁n
▁w edding</w>
▁p op</w>
▁p ilot</w>
▁merch ants</w>
▁N ex
y a</w>
s▁ ix</w>
ir ▁ed</w>
h▁ alf</w>
elec ti▁on</w>
▁dem ands</w>
▁communic ate</w>
▁M r
▁Ch a</w>
you▁ r</w>
m▁ ov
at o▁ry</w>
ad ver
En ter
▁v eter
▁usu al</w>
▁rem ove</w>
w e▁nt</w>
m ess
fac il▁
ear n
▁fac ing</w>
▁1 50</w>
n eigh
ific ations</w>
gu id
e▁ ri
ead ily</w>
c at
b▁e ing</w>
▁reas onable</w>
▁pur poses</w>
▁g r▁
▁bo at</w>
▁behav ior</w>
sib ili▁ty</w>
rel▁ ated</w>
et ters</w>
ea c
S un
C▁ ity</w>
▁sec ret</w>
▁r are</w>
▁investig ated</w>
▁def in
▁Z one</w>
▁3 4</w>
sh ould</w>
r u▁n
l os
g ov▁ern
E uro
▁s pl
▁exc eeded</w>
▁day care</w>
▁M ad
st a▁ge</w>
mus ic</w>
ea▁ sed</w>
d a▁
c▁ er
c iv
c e▁s</w>
b ank</w>
ar row</w>
M on
▁win s</w>
▁v acc
▁u plo
▁tou ch</w>
▁sp aces</w>
▁retur ning</w>
▁rel ation</w>
▁L ooking</w>
ver al</w>
sh▁ all</w>
s ou
p .m.</w>
or▁ ry</w>
min im
j u▁
co▁mp any</w>
comp et▁
ain t</w>
E X</w>
▁tim ▁e</w>
▁s entiment</w>
▁fa ith</w>
▁continu ing</w>
o▁r d▁ing</w>
os u</w>
, 7
, 6
▁tur ning</w>
▁per man
▁ow ned</w>
▁inv oice</w>
▁M ean
t omorrow</w>
res p▁
rec or
pr ais
me▁d ical</w>
e▁r ing</w>
bass y</w>
Jap▁ anese</w>
▁mut ual</w>
▁expl os
▁a spec
it ual</w>
ind ic
S o▁
▁y e▁ar</w>
▁s p▁
▁s oci
r▁ ate</w>
re▁l ated</w>
p▁ol ice</w>
he▁ l▁d</w>
f a▁ce</w>
P resi▁d
5 00</w>
▁negoti ation</w>
▁m el
▁j uven
▁gl ass</w>
▁flex ible</w>
▁cop y</w>
▁c red
▁W ednesday</w>
▁W ashington</w>
▁S oon</w>
t▁ ies</w>
sy▁st em</w>
s un</w>
os un</w>
med▁ ia</w>
lik e▁ly</w>
c ard</w>
at▁ ion▁s</w>
ach iev
1▁ 9
, ▁
▁ass aul
s man</w>
r▁ em
oy s</w>
num ber</w>
m▁ en▁t</w>
f ind
el em
diffic ul
con feren▁ce</w>
busin ess▁es</w>
Pa▁r ty</w>
O per
▁re jected</w>
▁pre viously</w>
▁plen ary</w>
▁o therwise</w>
▁har d
▁doll ar</w>
tr ie▁s</w>
produc ti▁on</w>
Direc t▁or</w>
&a▁pos▁ ;</w>
▁un usual</w>
▁u k</w>
▁pain tings</w>
▁h ot
▁classi fied</w>
▁G o
st e▁
f▁am ily</w>
exp a▁n
ay ▁ed</w>
ar ound</w>
Y ang
▁v oc
▁injur y</w>
▁down town</w>
ter ▁ed</w>
qu ality</w>
o▁r ts</w>
k inderg
i▁ ons</w>
is▁ m</w>
is si▁on</w>
essi ons</w>
ener y</w>
e ung
al l▁ed</w>
accor di▁ng</w>
Sch o▁ol</w>
▁sing ing</w>
▁num bers</w>
▁ha v▁e</w>
▁collap se</w>
▁bor row
▁M an
▁C ri
ou ido</w>
l e▁d</w>
in▁ v
ent um</w>
emerg en▁cy</w>
a▁n s
S▁ outh</w>
▁tow ards</w>
▁st ability</w>
▁so ft</w>
▁memor ies</w>
▁m all</w>
▁le isure</w>
▁hel ping</w>
▁dis crimination</w>
▁bir thday</w>
▁T imes</w>
▁Con cer
t ow
s▁ ur
ll ing</w>
l ets</w>
f er▁
f ans</w>
e▁x p▁
e▁s s▁
art a</w>
▁sh ops</w>
▁satis faction</w>
▁in str
▁cr ack
▁a▁ nd</w>
uch eon</w>
re▁ la▁ted</w>
pl ied</w>
iti cal</w>
h aus
g yp
evelop me▁nt</w>
e u▁n</w>
ath y</w>
am ong</w>
&▁ap▁os ;</w>
▁wor s
▁stud ied</w>
▁s ources</w>
▁n ecess
▁Arti cles</w>
▁A s
sal es</w>
prev e▁nt</w>
el er
ed ged</w>
e the▁r</w>
d er▁
administr ati▁ve</w>
20 th</w>
. 5
▁sh ut
▁resol ved</w>
▁Mean while</w>
▁Kor e▁a</w>
t▁h ere</w>
su fficient</w>
st a▁rt</w>
reg ion▁al</w>
h am</w>
bu il▁
J in
D i▁
Coun cil</w>
▁dis h</w>
▁Br idge</w>
tal▁ ks</w>
s▁ ystem</w>
e▁c tion</w>
coun t▁ry</w>
a▁ k
abil i▁ty</w>
S e▁r
D A
1 0th</w>
▁invol ving</w>
▁ex ▁
▁chann el</w>
▁ag ent</w>
ir▁ ae</w>
in▁ d</w>
inv olv
inclu▁ ding</w>
h oo▁n</w>
h it</w>
e▁r t</w>
duc ts</w>
ch il▁
bec om
as ses</w>
▁mis s</w>
▁dou b
▁dis close</w>
▁cl ou
▁belong ing</w>
▁D i
ye on▁g</w>
mon ths</w>
ific ati▁on</w>
el i
ech eon</w>
dr a▁
co▁m p▁
ay be</w>
i▁n gs</w>
as ting</w>
▁ter min
▁s cienti
▁memor ial</w>
▁l e▁
▁ap olog
▁Seong nam</w>
▁I ts</w>
▁D an
▁6 5</w>
y▁ ears</w>
th▁ ing</w>
ic ate</w>
al ogue</w>
al ists</w>
J us
3 7</w>
, 8
▁netw or
▁mil k</w>
▁d er
▁br ight</w>
▁D r
under st
trans port
p u▁r
ish eries</w>
em p▁l
arm ing</w>
B ur
▁win ner</w>
▁piec es</w>
▁fru it</w>
▁f ounded</w>
▁f ing
▁M ike</w>
tim▁ es</w>
r ise</w>
qu a▁r
j o▁ng</w>
im medi
eat edly</w>
charac ter
ad v▁
,0 0▁0</w>
▁legisl ation</w>
▁in quir
▁W on
om b
ograp hy</w>
i ant</w>
h op▁e</w>
ea▁ m</w>
de p▁
ber g</w>
arg o</w>
Gy▁ eong
▁sp icy</w>
▁pro pos
▁pre fer</w>
▁power ful</w>
▁disclos ed</w>
▁dis charg
▁c itizen</w>
▁C rea
tic ultural</w>
re po▁rt</w>
prov id
oin ted</w>
indus tri▁al</w>
ardi an</w>
▁sharehol ders</w>
▁r i▁ght</w>
▁dang erous</w>
▁Yong in</w>
t▁ h▁
por ti▁ng</w>
par ag
k▁ ey</w>
esti v▁al</w>
ech an
d aemun</w>
con du▁c
&a▁po▁s ;</w>
&a▁pos▁ ;▁s</w>
▁employ ed</w>
▁bu yers</w>
▁Ar my</w>
u esday</w>
stud ents</w>
situ ati▁on</w>
s afety</w>
l e▁s</w>
fin▁ al</w>
e ig▁ht</w>
arb age</w>
S oo</w>
Pro moti▁on</w>
▁un ve
▁qu ick</w>
▁ecos ystem</w>
▁Indus tries</w>
▁B oth</w>
oo▁ ls</w>
ay ers</w>
▁t i▁me</w>
▁str aight</w>
▁diagnos is</w>
▁det eri
▁c up</w>
▁&▁ quot;</w>
sc re
s e▁d</w>
p i
in sur
hw a▁n</w>
con si▁
H ye</w>
▁r ally</w>
▁Ac tress</w>
o▁r d</w>
o▁ ok</w>
o king</w>
ir cles</w>
hea▁ d</w>
ation a▁l</w>
▁val u
▁sou p</w>
▁g ate</w>
▁Shin han</w>
y one</w>
wi▁ n
sc▁h ool</w>
s anc
h▁ ye</w>
g ers</w>
c ost</w>
b el▁
M Z</w>
Da e▁
▁dis advant
▁c ake</w>
▁bic ycle</w>
▁F amily</w>
tric ▁t</w>
tic▁ al</w>
l▁i k▁
h ealth</w>
coun tries</w>
ci ent</w>
S AT</w>
D evel
0 00</w>
▁h undreds</w>
▁a r▁
▁R ather</w>
th in▁g</w>
p▁ ri
me e▁
employ e▁es</w>
ann ou▁n
▁pr o▁
▁gar den</w>
▁enterpr ise</w>
▁J ang
w eb
ul ▁ed</w>
rea▁ dy</w>
c▁om p
▁prog res
▁fe elings</w>
▁center ed</w>
▁Gyeong buk</w>
▁Gang seo</w>
s▁ l
or se</w>
k et
iv▁ er
is io▁n</w>
f em
ell er</w>
broad cas
S h▁
▁s ex
pl aces</w>
inv es▁
coun ter
S A</w>
, 9
▁un ification</w>
▁success fully</w>
▁reg ime</w>
▁identi ty</w>
▁h eight</w>
▁Pro t
▁G re
▁E U</w>
p▁ o▁s
o▁w ing</w>
k e▁rs</w>
gre▁ at</w>
f▁or m</w>
f oun
en e▁ss</w>
bu y</w>
b o▁r
ac▁ c
C C</w>
2 9
▁wat er
▁fav or</w>
▁exten d</w>
▁clos ing</w>
▁bl ind</w>
u▁ nd</w>
prof▁ it</w>
ot a</w>
form ed</w>
f i▁ne</w>
e▁ ir</w>
en n
ed▁ ly</w>
ea h</w>
G w▁
A N</w>
▁temper atures</w>
▁ma p</w>
▁m al
▁an ticip
s▁h oul▁d</w>
ish es</w>
il i▁es</w>
ic▁ an</w>
ex c▁h
b▁ est</w>
ac ting</w>
R ev
&a▁po▁s ;▁t</w>
▁rec over</w>
▁n erv
▁issu ance</w>
▁aut umn</w>
▁W ill</w>
rul i▁ng</w>
mo d▁
m yeon</w>
m us▁ic</w>
ac tly</w>
V s</w>
U▁n ited</w>
3 3</w>
▁pr im
probl em</w>
ous ness</w>
lo▁ ve</w>
gu ar
en▁ ing</w>
cas ▁es</w>
bec a▁me</w>
as k▁ed</w>
▁sh ipment</w>
▁sem in
▁frequ ent</w>
▁bo y</w>
▁3 3</w>
te▁ m
s▁tr ong</w>
s▁ afety</w>
me an▁s</w>
ind epend
En viron
▁s it</w>
▁happ iness</w>
▁gather ing</w>
▁eng ine</w>
reg ion</w>
po▁ p
p oi▁nt</w>
f▁er red</w>
empl o▁y
con▁ t
S ta▁
▁under ground</w>
▁prof essors</w>
▁inten si
▁inspec t</w>
▁disapp eared</w>
▁Stud ents</w>
v eh
ph ot
o ir</w>
i ol
grad u
a▁in st</w>
armaceu tical</w>
▁ph ones</w>
▁forec ast</w>
▁ad ap
r▁ ough</w>
l▁ ik
i e▁nce</w>
hi▁ gh
consid ▁
▁pat ent</w>
▁Res idents</w>
▁Ac ademy</w>
un g▁
s▁ ized</w>
r an</w>
ing ing</w>
com▁ pl
a eg
▁sm oke</w>
▁K um
ur ement</w>
ti▁ ci
syst e▁m</w>
s ociety</w>
or n</w>
m yeo▁n</w>
i▁n cial</w>
itch en</w>
il os
f utu▁re</w>
equ ip
ch on</w>
candid a▁te</w>
b▁ uk</w>
anm ar</w>
am ou▁nt</w>
▁hum ans</w>
▁coll ecting</w>
▁Inv estig
▁A be</w>
wh▁ ere</w>
t▁r ict</w>
t▁ le</w>
rel atio▁ns</w>
presid enti▁al</w>
ij eong
ew oo</w>
erea ved</w>
ener ation</w>
c m</w>
c ean</w>
Je▁ ju</w>
3▁ 0</w>
▁trou ble</w>
▁st adium</w>
▁rel ief</w>
▁c ited</w>
▁beg ins</w>
▁am b
▁accompan ied</w>
over se▁as</w>
m illion</w>
he▁ al
dre▁ n</w>
brea k</w>
▁prosec utors</w>
▁k ing</w>
▁Am azon</w>
r▁ ul
ri c</w>
on▁ es</w>
olo▁ g
loc at▁ed</w>
for▁ m</w>
e▁ ls</w>
employ ▁ed</w>
ec ▁t</w>
ch o</w>
▁n utr
▁clim ate</w>
▁In nov
u p▁
r i▁s
o▁r th</w>
l and
en ior</w>
b i▁
, 4
▁util ize</w>
▁s ac
▁pos itions</w>
▁pl ays</w>
▁manag ers</w>
▁gr anted</w>
▁ear th</w>
▁cl ubs</w>
sti▁ ll</w>
per s▁
ind ep
iber ati▁on</w>
c a▁ll</w>
bud g▁et</w>
an n▁
▁sol ar</w>
▁restric tions</w>
▁inter ior</w>
▁im pose</w>
▁f ulf
▁custom s</w>
▁crea m</w>
per ly</w>
l friend</w>
k▁ et</w>
educ ▁ation</w>
dep artme▁nt</w>
agre ement</w>
▁win ners</w>
▁sol id</w>
▁por tion</w>
▁advertis ement</w>
▁T own</w>
▁N orthern</w>
▁4 5</w>
pop ul▁ar</w>
organiz atio▁ns</w>
j udg
a▁s k</w>
an el</w>
C on▁
0 ,0▁00</w>
▁th▁ er▁e</w>
▁expen se</w>
▁aff ect</w>
▁ab und
▁St ore</w>
▁M ajor</w>
tr u▁c
t me▁nt</w>
p at▁
m ov▁
ign ment</w>
h ig▁h</w>
for ceme▁nt</w>
dis t
1 8th</w>
▁tr ends</w>
▁reg ulatory</w>
▁id ol</w>
▁hon or</w>
▁fri endly</w>
▁fr aud</w>
▁f estivals</w>
▁ded icated</w>
▁Gw anak</w>
▁B ig</w>
ul ating</w>
u ition</w>
t▁ om
ond ary</w>
n▁ ess</w>
mea▁ sur
m ove</w>
fil m</w>
dom▁ estic</w>
de▁c i▁ded</w>
bus▁ in
▁replac ement</w>
▁minis try</w>
▁S om
▁Asi ana</w>
th erm
lo▁ ok</w>
it ely</w>
ar a</w>
M i▁n
11 th</w>
▁t ar
▁h ous
▁acqu isition</w>
▁N ot
o▁ l</w>
is▁ t
il it▁y</w>
ch es
c ourt</w>
ai▁ r</w>
201 5</w>
▁larg er</w>
▁in her
▁exper tise</w>
▁St and
▁Sp ain</w>
re q▁u
ov .</w>
on▁ ce</w>
e▁n g
e▁ conom
econom ic</w>
contin u
c ust
b▁ e▁
a▁m p
a u</w>
Pri▁ me</w>
P ar▁k</w>
▁princi pal</w>
▁part ner</w>
▁i ▁t</w>
▁aud iences</w>
▁Pas tor</w>
▁C h▁
os is</w>
elec t▁ed</w>
e in</w>
con▁ ti▁n
▁sol ved</w>
▁im port</w>
▁foot ball</w>
▁cl ient</w>
▁M or
▁K wang</w>
▁In spec
▁G alaxy</w>
ter ▁n
t ae</w>
s▁ er▁
star ti▁ng</w>
ro oms</w>
pr▁oc▁ ess</w>
i▁c es</w>
il ding</w>
S C</w>
C oun▁
19 th</w>
▁vi ews</w>
▁politi ci
▁p ork</w>
▁land scape</w>
▁contro versi
▁S ol
▁F ur
ro▁u gh</w>
l ater</w>
a▁ st
amp▁ ;</w>
U. S▁.</w>
▁p our
▁m ood</w>
▁aw ards</w>
▁G un
w om▁en</w>
sit uation</w>
l in▁e</w>
ellec tual</w>
ar▁ tment</w>
an▁ n
an▁ ch</w>
ac h▁
N E
▁v it
▁tea ching</w>
▁step s</w>
▁st ea
▁s a▁id</w>
▁re in
▁aim s</w>
▁S in
▁Coll ege</w>
y▁ oung</w>
umb ent</w>
pl us</w>
iv▁ en</w>
if▁ ic</w>
exper i▁
ay ment</w>
av il
W oo</w>
&ap▁os▁ ;</w>
▁w aves</w>
▁st eadily</w>
▁smo king</w>
▁g aining</w>
▁el imin
▁des ire</w>
▁ ent</w>
par liam
P▁ar ty</w>
▁th us</w>
▁see king</w>
▁Buddh ist</w>
▁B en
w▁ ar</w>
s e▁nt</w>
r▁ ep
p .▁m.</w>
h▁av ▁e</w>
dep u▁ty</w>
b ro▁
al▁ ready</w>
ac ti▁ve</w>
Ju▁ ly</w>
C entr▁al</w>
▁though ts</w>
▁r ace</w>
▁c y
▁N ew
▁Gir ls</w>
▁A uth
wor kers</w>
u▁s try</w>
se▁ cond</w>
j▁ oy</w>
i▁ gh</w>
intern at▁ional</w>
er g▁
em phas
c▁h a▁r
c en▁
ag er</w>
ach es</w>
G r
▁suppl ied</w>
▁inform ed</w>
▁fur n
▁exp iration</w>
wo▁r ld</w>
pr ises</w>
m▁ an
hi▁ m</w>
ec te▁d</w>
ampion ship</w>
In tern▁
▁rec ip
▁fir es</w>
▁ev ac
▁cons ent</w>
▁categ ory</w>
▁analy ze</w>
▁R ural</w>
▁Ir an
▁19 6
wh▁ ic▁h</w>
w ing</w>
ul▁ tural</w>
pl▁ ex</w>
or ful</w>
m ant
is h▁
K a▁ng</w>
D a▁
C ou▁n
Am er
12 th</w>
▁pleas ant</w>
▁p eak</w>
▁g e
▁Sen ior</w>
▁N ong
repres ent▁
p re</w>
oo den</w>
inspec ti▁on</w>
es ides</w>
c k</w>
ap ed</w>
Gover n▁ment</w>
A sia</w>
4 8</w>
▁rep eatedly</w>
▁h arm
▁g arbage</w>
▁deliber ate</w>
▁S ur
ur e▁s</w>
tor al</w>
tem per
l er</w>
ho▁ l
ec o</w>
c▁ oun
af ternoon</w>
▁restor ation</w>
▁comm unities</w>
▁R ob
▁An g
yo▁ ur</w>
ma▁ y</w>
cer tific
a▁ rou▁nd</w>
S h▁in</w>
@▁ -▁@</w>
▁s ick</w>
▁mess ages</w>
▁identi fy</w>
▁her itage</w>
▁er ror</w>
▁appro ach</w>
▁ad ult</w>
▁Yong san</w>
▁U rban</w>
v ic▁e</w>
u h
t▁h ree</w>
su▁pp o▁rt</w>
oth e▁r</w>
oc▁r atic</w>
m anufactur
h▁ n
fir s▁t</w>
er age</w>
compan ie▁s</w>
ate▁ gy</w>
a w▁ay</w>
▁st ates</w>
▁r ating</w>
▁cancell ation</w>
un▁ ity</w>
un i
respec tively</w>
m anufac
j oin
fac ▁t</w>
H a</w>
▁n ote</w>
ul p
t▁r y▁ing</w>
sup▁ port</w>
sp a▁ce</w>
pres s
e d▁uc
S ong
B usin
1 5th</w>
▁refug ees</w>
▁fin es</w>
▁con clusion</w>
▁ar chitec
▁Se wol</w>
with standing</w>
in ations</w>
g oo▁d</w>
as hed</w>
an▁ other</w>
ain ts</w>
▁volunt ary</w>
▁p riv
▁mar ine</w>
▁don ated</w>
▁deb ut</w>
▁a te</w>
re port
pro jects</w>
m ulti</w>
l ey</w>
is▁ on</w>
invest▁ ig
ign ation</w>
ati s</w>
H eal▁th</w>
▁w ine</w>
▁strength ened</w>
▁ro of</w>
▁ran king</w>
▁j um
▁comp on
▁accur ate</w>
▁P OSCO</w>
▁J ohn</w>
partic▁ ip▁
f os
S ept
▁trans port</w>
▁f allen</w>
▁enjoy ing</w>
▁con tribu
▁air craft</w>
pl at
ow n▁ed</w>
n ings</w>
mi▁ll ion</w>
ma▁ t
att ached</w>
▁selec ting</w>
▁fl ag</w>
▁epis ode</w>
▁dis asters</w>
▁I s
re port▁ed</w>
gover n▁
cent age</w>
art ers</w>
H all</w>
Artic▁ l▁e</w>
▁w est</w>
▁viol ations</w>
▁inspec tions</w>
▁fun eral</w>
▁dr aft</w>
▁displ ayed</w>
▁d riv
▁con fron
▁comp ar
▁allow ance</w>
▁S ociety</w>
um ber</w>
t▁ ae</w>
pl an
lec ted</w>
eleb ri
duc es</w>
▁u l</w>
▁saf ely</w>
▁s auce</w>
▁mas sive</w>
▁Par is</w>
si o▁ns</w>
oo ked</w>
on a</w>
h▁ a▁d</w>
d in▁
▁st aying</w>
▁prev enting</w>
▁arr anged</w>
▁Y eah</w>
wh el
m e▁d</w>
l▁ ife</w>
an c▁ed</w>
Fin anci▁al</w>
▁z ones</w>
▁sub ordinate</w>
▁sc andal</w>
▁s outh</w>
▁n or
▁kil om
▁J u</w>
w a▁nt</w>
urr y</w>
ti▁ al</w>
resear ch▁er</w>
res ul▁ts</w>
o▁ ri
l ar▁
go▁ al</w>
find i▁ng</w>
f ine</w>
et▁ ter</w>
ac ts</w>
Associ ati▁on</w>
3 4</w>
▁rem oved</w>
l og
issi ons</w>
h▁ el
d ▁e</w>
conc entr
compa▁n ies</w>
bl ing</w>
D is▁
B u▁
▁rem ained</w>
▁op pon
▁mand atory</w>
▁gr and</w>
on ment</w>
envir o▁n
W elfa▁re</w>
C o▁n
▁r oyal</w>
▁proc essed</w>
▁ass igned</w>
▁Ar ab
▁ tr
techn ology</w>
in▁ cial</w>
int▁ er▁
b al</w>
S ▁h
Nor t▁h</w>
Bar eun
9 2</w>
▁ur ged</w>
▁pl▁ ace</w>
▁f ro
▁dest ination</w>
▁calcul ated</w>
zbek istan</w>
urr ence</w>
tu▁ al</w>
sh ort</w>
re▁ st</w>
rev eal▁ed</w>
re t▁
m ad▁e</w>
l▁ ine</w>
ic k▁
f inis
c ap▁
b▁e fore</w>
▁rec ycl
▁m ission</w>
▁fil ming</w>
▁T witter</w>
▁L t
ultur ▁e</w>
ucle▁ ar</w>
t ech</w>
sec reta▁ry</w>
pro gr▁am</w>
h i</w>
f il▁
ex chang
cri tici
c a▁n
B r▁
▁wea pons</w>
▁vis its</w>
▁partic ularly</w>
▁bea ch</w>
▁R eal</w>
▁CC TV</w>
vers ity</w>
s▁ un</w>
s▁ oon</w>
s m▁
p it
intern ation▁al</w>
fu▁ ll</w>
es▁ ted</w>
ee▁ ds</w>
d▁ own</w>
d ae</w>
▁t uition</w>
▁surpr ised</w>
▁recor ding</w>
▁pers pec
▁b ereaved</w>
▁Hwas eong</w>
▁201 ▁
ov e▁r</w>
eong nam</w>
S ong</w>
D el
C ourt</w>
▁c o▁
politi c▁al</w>
os eong</w>
on ic</w>
in formation</w>
g ir
an▁ ks</w>
ac r
M e
2▁ 0</w>
▁un comfortable</w>
▁tim ing</w>
▁gu ests</w>
▁4 00</w>
un ion</w>
t ook</w>
pro moti▁on</w>
if i▁ed</w>
f ig
driv i▁ng</w>
a▁ rea</w>
P r▁es
Mar ch</w>
▁str eets</w>
▁parti ally</w>
▁lif elong</w>
▁inten ded</w>
▁f ake</w>
▁bat tery</w>
▁Do osan</w>
▁1 .5</w>
w▁ i▁ll</w>
s▁ ia</w>
si us</w>
pr ing</w>
poin t▁ed</w>
os s
itt ees</w>
ik es</w>
ac le</w>
▁hol ds</w>
▁cal c
▁atten dance</w>
th▁ ere</w>
th ere
por▁ t
o y▁
n ews</w>
ed g▁ed</w>
beg▁ an</w>
▁reg arded</w>
▁h ur
▁e c
▁clos er</w>
▁O b
▁E gyp
wh a▁t</w>
sex u▁al</w>
pos t</w>
mon t▁h</w>
m y▁eon</w>
larg e▁st</w>
i▁n v
il t</w>
a▁ fte▁r</w>
att en▁
an▁ k</w>
▁ver ification</w>
▁succ eeded</w>
▁expl ains</w>
w▁ ard</w>
our▁ t</w>
lea di▁ng</w>
e▁nt ary</w>
ed estr
d uring</w>
cul▁ tural</w>
citiz e▁ns</w>
Sec uri▁ty</w>
F o▁
C o
▁volunt eers</w>
▁volunt arily</w>
▁veget ables</w>
▁tex t
▁sw imming</w>
▁st ood</w>
▁n arrow</w>
▁li ked</w>
▁U.S.- China</w>
▁Gor yeo</w>
▁C ustom
u▁ tion</w>
i▁ als</w>
gan ic</w>
et own</w>
dis cu▁
c ou
c ame</w>
a▁ ms</w>
P▁ l
Pro sec
1 .
▁sec re
▁bo ost</w>
▁Independ ence</w>
▁Every one</w>
ur ches</w>
ti g
s▁ ol
s ea</w>
o pl▁e</w>
k▁ now</w>
i▁l l▁
h ou▁
f requ
▁sti p
▁sam ples</w>
▁r ▁
▁l ab
▁k eeping</w>
▁c at</w>
▁K oo</w>
▁&q▁u o▁t;</w>
un ivers
g ent
fi▁r st</w>
e h▁
c ou▁rt</w>
atio▁n al</w>
P yong
C D</w>
▁tem ple</w>
▁sm ile</w>
▁sinc er
▁s ai▁d</w>
▁per centage</w>
▁l ength</w>
▁h idden</w>
▁chann els</w>
▁an gry</w>
▁G ar
▁C er
wee k
sa▁ y</w>
res erv
p oor</w>
n e▁d</w>
minis t▁er</w>
k▁ ers</w>
e▁n se</w>
cl▁ os
c itizens</w>
b es</w>
▁co ordin
▁boo k
▁Con trol</w>
previ o▁us</w>
ot▁ el</w>
g ▁e</w>
f ol
ea ble</w>
an ish</w>
am ber</w>
F eder
▁st ance</w>
▁implem enting</w>
▁gu est</w>
▁f it</w>
▁e scape</w>
▁b ar</w>
▁L un
▁G ood</w>
▁C el
u g▁
rou d</w>
ood les</w>
ond on</w>
con ti▁n
comm unity</w>
Gang won</w>
&a▁pos; d</w>
▁str ange</w>
▁exhib itions</w>
▁Pl anning</w>
yo▁ ung</w>
si▁ ty</w>
s o▁l
over s</w>
m▁ ar▁
e▁n tly</w>
exc ell
ew er</w>
eun mirae</w>
c all</w>
Ch▁ ina</w>
&▁apo▁s ;t</w>
▁tea ch</w>
▁favor able</w>
▁deep ly</w>
▁c ircles</w>
tog eth▁er</w>
st ory</w>
serv ices</w>
r▁ d</w>
j ung</w>
fu▁ l</w>
em er▁
ea ting</w>
dis c▁
a▁t es</w>
at o</w>
▁tax pay
▁scholar ship</w>
▁c ou▁ld</w>
z h
rex it</w>
m its</w>
er k</w>
conduc t▁ed</w>
ch ai▁rm▁an</w>
appear ▁ed</w>
Kor▁ ean</w>
▁s inc▁e</w>
▁inc umbent</w>
▁demonstr ation</w>
▁b id
▁advertis ements</w>
▁P ur
▁H eavy</w>
▁3 0
sp ace</w>
m ir▁ae</w>
e▁ x</w>
en ses</w>
e t▁s</w>
and is</w>
ak ▁
ach eon</w>
P al
A hn</w>
▁ris en</w>
▁rep eated</w>
▁recru it</w>
▁accum ulated</w>
▁Sou theast</w>
▁A g
s▁ orr▁y</w>
sus p▁
s i▁n
rece i▁ve</w>
i▁ tie▁s</w>
iv▁ ing</w>
ic i▁al</w>
f ish
e▁n ti
er in▁g</w>
ash ing</w>
af▁ ter</w>
Comm▁ ittee</w>
▁suppl ies</w>
▁sm oothly</w>
▁revital ize</w>
▁mar ks</w>
▁l ea▁
▁cons ensus</w>
▁S u</w>
s▁ ince</w>
ou g▁ht</w>
op i▁n
oc r▁
l on▁g</w>
k age</w>
il eg
govern m▁ent</w>
e▁ lec
a▁m a</w>
S o</w>
H▁ an</w>
2 7th</w>
2 1st</w>
▁par agraphs</w>
▁civ ilian</w>
▁c ells</w>
▁S uch</w>
▁J eong
▁A ward</w>
wo▁r king</w>
h ib▁
ea▁ t</w>
c▁ ent</w>
S E
In cheon</w>
A pril</w>
4 9</w>
▁withdraw al</w>
▁sh ips</w>
▁ris ks</w>
▁gener ated</w>
▁cons ult</w>
▁My anmar</w>
▁Al ong</w>
o▁l ogy</w>
ma▁r ket</w>
l t</w>
es pec
P▁ ark</w>
J eon
&▁a pos;▁s</w>
▁trea t</w>
▁sett led</w>
▁satis fied</w>
▁ex tingu
▁certif ied</w>
▁agric ulture</w>
▁S orry</w>
▁Jeoll anam</w>
▁Ital y</w>
s uc▁h</w>
ri▁ se</w>
r al</w>
pr eme</w>
ow ad
ol▁ ogy</w>
l ea▁r
iv ▁ed</w>
il ty</w>
ien t▁ed</w>
hos t▁ed</w>
g▁ ot</w>
e▁ men▁t</w>
d ingly</w>
al one</w>
J▁ ae</w>
A p
3 8</w>
3 6</w>
▁‘ ‘</w>
▁fe et</w>
▁c ultur
▁br idge</w>
▁M ich
▁M er
wi▁ fe</w>
pr ise</w>
op pos▁
gr and
d one</w>
al k
ak a</w>
▁mob il
▁low ered</w>
▁comm od
▁W ater</w>
▁F isheries</w>
und▁ ai</w>
t▁ iv
th ird</w>
ook min</w>
j u▁ng</w>
e▁n t▁
environ me▁nt</w>
cur r▁
at▁ her</w>
▁s qu
▁person ality</w>
▁m agn
▁l etters</w>
▁in stitutes</w>
▁a l▁
▁M ilitary</w>
▁Bar eunmirae</w>
w▁ it▁h</w>
tiv ▁es</w>
se ver
s een</w>
over ▁
lik ely</w>
issu es</w>
h wan</w>
es▁ tiv
Y o▁on</w>
C ultur▁al</w>
▁sup posed</w>
▁beh alf</w>
re▁ t
o▁ u▁t</w>
mat ch</w>
m ind</w>
ill▁ ion</w>
ft ware</w>
el▁ d</w>
avo id
Ch a▁ir
▁piec e</w>
▁m o▁n
▁happen s</w>
▁fl av
▁d r▁
▁cor ner</w>
▁Her itage</w>
▁B ae</w>
me▁ di
ig g
h app
c ess</w>
J a▁ng</w>
▁tour nament</w>
▁thor oughly</w>
▁serv ants</w>
▁rout es</w>
▁p al
▁ab sol
▁El ementary</w>
▁3 ,000</w>
u▁s h</w>
t l▁y</w>
rel eas▁ed</w>
ra▁p h</w>
f u▁n
elec tr▁
ag on</w>
aff airs</w>
▁writ er</w>
▁w alls</w>
▁scen es</w>
▁r oo
▁j us
▁di e</w>
▁cl oud</w>
▁adj ustment</w>
n u▁m
man ip
ig er
g▁ ro▁
b en
Bl▁ ue</w>
,5 00</w>
▁main taining</w>
▁P o
r▁ ed
quart e▁rs</w>
ordin ary</w>
h ours</w>
em a</w>
ec e</w>
c▁ ar
cont in▁ue</w>
ak arta</w>
a ver
S▁e o▁ul</w>
S i</w>
▁hel p
▁be ef</w>
▁ass oci
▁app oint</w>
▁a c▁
w ee▁
or ient▁ed</w>
gr at
d ust</w>
b oo▁
a▁ mo▁
D P</w>
&▁ a▁
▁s ix
▁op posed</w>
▁extr em
▁S ure</w>
▁J oint</w>
p▁ ar▁
inc▁ re▁ase</w>
go i▁ng</w>
expec t
ch▁ ool</w>
c au
A ug
▁produc ing</w>
▁offic io</w>
▁fac tories</w>
▁ab norm
▁Sw ed
▁Air lines</w>
sub ▁
q▁ ue</w>
pos sib▁
la▁ w
j un
g l▁
eti zens</w>
diff▁er ent</w>
design at▁ed</w>
caus ▁ed</w>
as c
▁ref used</w>
▁illeg ally</w>
▁gu ard</w>
▁ch osen</w>
▁abs ence</w>
▁Ex change</w>
▁3 6</w>
t▁ ive</w>
q▁u▁ ot;</w>
n ation</w>
im al</w>
d et▁
▁slow down</w>
▁lux ury</w>
▁l ink</w>
▁k een</w>
▁Pre viously</w>
t▁ri al</w>
t unately</w>
s k▁
organiz ati▁on</w>
om ing</w>
ir t</w>
h um▁an</w>
g reat</w>
e▁n d
el l▁
con serv
chil d</w>
am ing</w>
&apos; ▁
▁res t
▁off ers</w>
▁Dru g</w>
owad ays</w>
od es</w>
contr a▁ct</w>
af te▁r</w>
ac ific</w>
▁w astes</w>
▁up coming</w>
▁sp okesman</w>
▁indic ators</w>
▁evalu ate</w>
▁Dis aster</w>
▁Co ast</w>
▁2 ,000</w>
trad ition▁al</w>
on ight</w>
j ak</w>
ch ief</w>
ar i</w>
aff ili
Gang nam</w>
7 5</w>
▁gradu ate</w>
ver▁ sy</w>
th ei▁r</w>
pl▁ y</w>
az ing</w>
ap h
angh ai</w>
N o.</w>
▁to il
▁mul ticultural</w>
▁lim itations</w>
▁character ized</w>
▁brea d</w>
ven ti▁on</w>
rou▁ ps</w>
ro le</w>
pe▁r son</w>
o▁ pe</w>
m u▁st</w>
li▁ sh</w>
g rou▁nd</w>
fr ont</w>
enti ally</w>
eas ing</w>
att ach▁ed</w>
ati cs</w>
ar res
ac ▁t</w>
▁w ild</w>
▁dom in
sec uri▁ty</w>
iss▁ ue</w>
inform▁ ation</w>
go al</w>
f▁ ro▁m</w>
M etro
▁tempor arily</w>
▁n orth</w>
▁fa ith
▁abund ant</w>
▁Th ursday</w>
▁I l</w>
us hed</w>
p ain
ow▁ s</w>
ill ing
du▁r ing</w>
Ch e
▁s ik</w>
▁res ▁
▁perman ent</w>
▁o v
▁mag az
▁entr eprene
▁Il bo</w>
▁Gyeongsang nam</w>
m i▁ng</w>
go▁ ver
fe▁ el</w>
c op
▁prov ision</w>
▁in sufficient</w>
▁b ow
▁a uto</w>
▁a im</w>
▁Not withstanding</w>
▁Mar itime</w>
▁M od
w▁ ith
sup pl
ran ki▁ng</w>
l▁ ittle</w>
inc▁ rea
in c▁lud
e▁x pec
enc our
ch ▁es</w>
c ou▁
ac cus
▁ob ser
▁fea sibility</w>
▁ex haus
▁collap sed</w>
w el
vis it</w>
u til
th rou▁
t al</w>
s▁ ayin▁g</w>
reg ar
pol icies</w>
is ▁t</w>
id ential</w>
exp a▁nd</w>
ay a</w>
D evelopme▁nt</w>
A pr▁il</w>
▁oper ates</w>
▁cons ist
▁b ear</w>
▁Offic ials</w>
▁F SS</w>
▁E ui</w>
w▁ it
ur▁ ch</w>
l es▁s</w>
igh ter</w>
f▁ in
et c.</w>
comm uni▁ty</w>
ap▁ ed</w>
ag▁ ain▁st</w>
ag a▁in</w>
a he▁ad</w>
Sup re▁me</w>
O R
B u
B O</w>
A g
▁the ory</w>
▁rea c
▁prom ise</w>
▁har assment</w>
▁disp utes</w>
▁3 8</w>
v id▁eo</w>
s▁ e
spec ial</w>
s per
pr o</w>
p oin▁
or▁ es</w>
er▁ y</w>
a▁r ty</w>
as sed</w>
W omen</w>
S e</w>
5 2</w>
▁tur ns</w>
▁res erve</w>
▁d eal
▁b ath
▁anx iety</w>
j oin▁
de ung
Univer ▁
Mar▁ ch</w>
20 0▁
▁res ulting</w>
▁kn ows</w>
▁k ids</w>
▁c argo</w>
▁b an</w>
▁answ ers</w>
▁Jeon ju</w>
u d</w>
t▁ ake</w>
ous▁ ly</w>
infl u
id er</w>
gu es</w>
fr▁ i
e▁ ff
d ig
compl▁ ex</w>
al i▁ty</w>
5 5</w>
▁vis ion</w>
▁some what</w>
▁l ed
▁im ports</w>
▁ex cluding</w>
▁boy friend</w>
▁S al
ult▁ ural</w>
u t▁ion</w>
u el
t▁ ment</w>
sur ▁e</w>
l ead</w>
f a▁r
di▁ sc
dec▁ is▁ion</w>
comp▁an ie▁s</w>
ad d▁ed</w>
Serv i▁ce</w>
H ou▁se</w>
A▁ ss
▁prot est</w>
▁occ as
▁m erg
▁B ucheon</w>
wor ds</w>
ti▁ l</w>
om e▁n</w>
e▁ ong</w>
all ig
Y▁ oo</w>
Tr u▁mp</w>
▁sit ting</w>
▁scor es</w>
▁ass istance</w>
▁V ol
▁K E
▁C J</w>
w ed</w>
w arr
tu s</w>
s ent</w>
m ent▁s</w>
i ated</w>
g yo</w>
e▁ at</w>
dr y</w>
b or</w>
az e</w>
▁tr uck</w>
▁st ayed</w>
▁mo is
▁boo ked</w>
▁b ond</w>
▁Un ification</w>
▁Law maker</w>
▁Ch un
mon t▁hs</w>
m et
g ather
f ish</w>
environ ment</w>
e ived</w>
ab l▁ed</w>
Y ear</w>
N G</w>
A ut
▁st ages</w>
▁rain y</w>
▁min or</w>
▁fun ding</w>
▁fre edom</w>
▁form ation</w>
▁U zbekistan</w>
▁Gim po</w>
t▁ al
inn ov▁
h u▁
gover n▁ment</w>
g ok</w>
f ew</w>
e▁ ars</w>
d own
b▁ o
S um
, 3
&▁a pos▁;t</w>
▁s or▁ry</w>
▁resid ence</w>
▁m ir
▁log istics</w>
▁franch ise</w>
▁Gwang jin</w>
▁Afr ica</w>
o▁ le</w>
in struc
ex isti▁ng</w>
ai▁r man</w>
▁var i
▁sub committee</w>
▁st om
▁separ ated</w>
▁sens itive</w>
▁kilom eters</w>
▁answ ered</w>
▁Y eon</w>
▁4 0s</w>
r▁ s</w>
k g</w>
hist ory</w>
a▁l ity</w>
▁k itchen</w>
▁P ost</w>
▁N et
▁C ath
y wood</w>
sus p
s o▁m
res sion</w>
r ank
pa▁ y
enterpris ▁es</w>
e ul</w>
dis app
af t▁
N e▁w</w>
1 4th</w>
▁th e▁ir</w>
▁rail way</w>
▁pr o</w>
▁ph ase</w>
▁n o▁t</w>
▁St adium</w>
▁B ang</w>
sa▁ ying</w>
o▁ te</w>
g i
b ang</w>
ab uk</w>
S K</w>
K▁or ea▁n</w>
Com▁ m
▁sc enery</w>
▁o d
▁l e▁v
▁hel icop
▁Ch un</w>
▁B ible</w>
s oc▁
per▁ ty</w>
l▁ et</w>
con▁ti▁n ue</w>
G eun</w>
Dep u▁ty</w>
▁strugg ling</w>
▁review ing</w>
▁pres ervation</w>
▁l ights</w>
▁l ibr
▁gener ations</w>
▁car bon</w>
▁analy zing</w>
▁H ead</w>
s▁ ide</w>
sus pic
r e▁d</w>
p▁ art</w>
or gan
l in</w>
iv alent</w>
co in</w>
c iti▁es</w>
B yung</w>
13 th</w>
▁investig ations</w>
▁academ y</w>
um ul
tr ea▁
pe▁ opl▁e</w>
or ▁e</w>
m▁ uch</w>
differ e▁nt</w>
ba▁ se</w>
S por▁ts</w>
O s</w>
Agric ultur▁al</w>
▁out come</w>
▁n oted</w>
▁m ass
▁hea ting</w>
▁f erry</w>
▁V alley</w>
t▁ ional</w>
tr i▁ll
por ter</w>
o▁ b
mor ni▁ng</w>
ful▁ ly</w>
der ▁s</w>
agr am</w>
▁tr ain
▁ins isted</w>
▁honor ary</w>
▁5 0s</w>
▁2 .
n at▁
ministr ative</w>
i▁ cial</w>
if ▁e</w>
if ic▁
i z</w>
h ea▁r
g rea
ey ed</w>
el▁ l
elebri ties</w>
▁re f▁erred</w>
▁bur eau</w>
▁I D</w>
▁D em
tem por
se qu
pas sed</w>
p ass</w>
e▁ te</w>
d a▁te</w>
au gh</w>
& am▁p;</w>
▁v otes</w>
▁enti ty</w>
▁dist ingu
▁b on
▁b odies</w>
▁Conf uc
sec tor</w>
o▁ use</w>
om estic</w>
ol▁ ve</w>
n▁ ame</w>
mo▁ ve</w>
m or▁
ilit ation</w>
S ep
H y▁
▁ter r
▁r ock</w>
▁harm ful</w>
▁an ti
▁H ong
▁G uro</w>
▁Aud it</w>
z one</w>
ig h▁er</w>
eas y</w>
ain e▁d</w>
ag e▁s</w>
Gwang ju</w>
▁work place</w>
▁s ew
▁rev olution</w>
▁restric ted</w>
▁nur sing</w>
▁impres sive</w>
▁c ust
▁c a▁n</w>
▁c ab
▁Eng land</w>
s por▁ts</w>
ri▁s k</w>
por t▁s</w>
l ad
gr i</w>
e▁ um</w>
ap es</w>
In stitu
Hw a▁ng</w>
1 1▁
▁so il</w>
▁small er</w>
▁qual ification</w>
▁l ong
▁h ate</w>
▁fol k</w>
▁e ast</w>
▁certific ates</w>
▁N e
▁Com pared</w>
un▁ ch</w>
ug ar</w>
tr ue</w>
tern s</w>
t op
s▁ exual</w>
su ffer
st▁ op</w>
se▁ en</w>
ron ic</w>
p oll
m▁ od
ess i▁on</w>
ens ▁e</w>
I A</w>
F r▁
▁thous ands</w>
▁re views</w>
▁neighbor hood</w>
▁mis s
▁memb ership</w>
▁fac ed</w>
▁Se ocho</w>
▁S o
su▁ it</w>
si▁ m
sib ilities</w>
m eas▁
foll ows</w>
ex chan▁ge</w>
ev en
der ▁ed</w>
a▁mo▁ unt</w>
act▁ iv
a ul</w>
I l
▁sen iors</w>
▁co ol
▁Sh ow</w>
▁Re uters</w>
▁Del iberation</w>
▁20 ▁
v ent</w>
uc k
s▁ ik</w>
su▁ n</w>
r▁ et▁
pos▁ si▁ble</w>
oc ol
in te▁
e▁ ge</w>
en a</w>
▁H ousing</w>
▁Dec laration</w>
w▁ or▁
sc ale</w>
produc t</w>
p ool</w>
er▁ ing</w>
draw i▁ng</w>
co▁n t▁
cil or</w>
G ov▁ern
▁sm ell</w>
▁r om
▁pos s
▁differ enti
▁di alogue</w>
▁Un ions</w>
▁C andid
t ype</w>
maj or</w>
it ability</w>
f u▁r
e▁ ther</w>
e y▁
coun tri▁es</w>
cas es</w>
az ak
Su▁ preme</w>
H ead
F C</w>
▁sec ondary</w>
▁correspon dent</w>
▁b io</w>
▁M ok
▁Innov ation</w>
▁Con stitutional</w>
▁2 4
st▁ ar
re po▁r
re port</w>
ici ans</w>
char g▁es</w>
an a▁l
C▁h ina</w>
Con struc
Ch il
▁institu tional</w>
▁f oun
▁ac tress</w>
▁Iran ian</w>
▁Int elligence</w>
ur b▁an</w>
un ds</w>
st ing</w>
re vis
pro mis
pre dic
n ation
l angu
k ish</w>
erg ency</w>
curr ent▁ly</w>
b▁ ur
ac ter
a ur
J un▁g</w>
In d▁
G r▁
▁ser iously</w>
▁mon etary</w>
▁f ighting</w>
▁H ome</w>
▁&apo▁s ;▁s</w>
su ff
pro▁ bl
j▁ ae</w>
i▁r st</w>
int egr
fr▁ o▁m</w>
ev e▁r
ch a▁ng
at▁ i▁on</w>
ar i▁
O ct
H e</w>
▁work shop</w>
▁subscri ption</w>
▁s ustain
▁f ab
▁cri tical</w>
▁comp ete</w>
▁ try</w>
vi o▁l
pol itan</w>
n ex▁t</w>
inter n▁
f▁ uture</w>
e▁ er</w>
d iv▁
co▁ ll
act▁ ively</w>
Al t▁h
▁t ears</w>
▁serv ing</w>
▁g ri
▁for ms</w>
▁ex ist</w>
▁dem entia</w>
▁crack down</w>
▁c utting</w>
▁M ir
▁2 8
w o▁men</w>
m▁ at
li▁ ve</w>
l oo
ea ch
e very</w>
cons ci
com par▁ed</w>
M▁ ar
▁thor ough</w>
▁har mony</w>
▁ear ned</w>
▁drea ms</w>
▁R ed</w>
treat me▁nt</w>
st ablish
oo▁ ds</w>
iti▁ ve</w>
in su▁r
il▁ lio▁n</w>
eff or▁ts</w>
b re▁
L im</w>
A I
▁pres ence</w>
▁f ever</w>
▁aband oned</w>
▁Bl ack</w>
tr▁ ict</w>
m▁ ental</w>
iver ▁
ep age</w>
e z</w>
du▁ ce</w>
R es▁
C▁ enter</w>
▁mur der</w>
▁mat ches</w>
▁loc als</w>
▁gradu ates</w>
▁consid erable</w>
▁I sl
y l
var▁ ious</w>
sid ▁e</w>
pay me▁nt</w>
m o▁r
la▁ w</w>
eti n</w>
diff▁ ic
de▁v el
d est
d eath</w>
S▁ eo</w>
Pro f
▁w ooden</w>
▁targ ets</w>
▁pas sion</w>
▁liter ature</w>
▁Reg ional</w>
p ti▁on</w>
ot ten
ol es</w>
ff▁ ic</w>
e▁n cy</w>
er▁ n
con tribu
b ase</w>
Th▁ at</w>
Ar t</w>
▁s oo</w>
▁A f
t▁ on</w>
rais ▁ed</w>
or es</w>
ol d
mon▁ ey</w>
j ang</w>
in▁ cluding</w>
fun▁ ds</w>
ca▁ p
ang ible</w>
ad j
G▁ u</w>
1 7th</w>
▁tar iff</w>
▁post pon
▁doc tors</w>
▁com ment</w>
▁calc ulation</w>
▁b eat</w>
▁acqu aint
▁T h▁
▁S um
▁Ar t▁icle</w>
val ue</w>
ti▁ c
te▁ ch</w>
s e▁s</w>
s eas
re p▁or
em y</w>
dem a▁nd</w>
c▁ha▁r ge</w>
ap▁ p
A ▁n
▁un expected</w>
▁prec ious</w>
▁fundam ental</w>
▁cur ious</w>
▁counter measures</w>
▁cont ain</w>
▁K ookmin</w>
▁Gyeongsang buk</w>
▁2 6
wi▁ de</w>
u▁ k</w>
ur▁ ing</w>
sh ap▁ed</w>
par k</w>
m enti
is t▁er</w>
hib ition</w>
h our</w>
econ o▁my</w>
cl o▁se</w>
anc e▁s</w>
al ism</w>
ag eous</w>
acc o▁rd▁ing</w>
▁se ts</w>
▁ind oor</w>
▁const antly</w>
▁adj usted</w>
▁Wo ori</w>
▁Han oi</w>
s▁ ai▁d</w>
sel ▁f</w>
r▁ec ent</w>
ov el</w>
eep s</w>
b▁ us</w>
anm unj
S o▁ng</w>
▁revis e</w>
▁res truc
▁r oll
▁gre en
▁f ail</w>
▁b r▁
▁H er</w>
▁F our</w>
p▁l ace</w>
os ing</w>
min u▁te</w>
ig▁h ts</w>
i us</w>
er▁ ation</w>
direc t▁ly</w>
cre a▁te</w>
b▁ ers</w>
ai▁ l
S NS</w>
3 9</w>
2 6th</w>
▁util izing</w>
▁prefer ential</w>
▁op posite</w>
▁m ission
▁ex actly</w>
▁controversi al</w>
um es</w>
si▁ a</w>
sh ip
r ail
p▁ port</w>
fi▁l m</w>
eas e▁d</w>
e el
direc tor</w>
b▁ec ome</w>
Tra▁ de</w>
1 s▁t</w>
▁spec t
▁le▁v el</w>
▁fr▁ om</w>
▁cou l▁d</w>
▁c and
▁U K</w>
w ak</w>
vol unt
u▁r es</w>
r y
end ship</w>
en er▁gy</w>
S on</w>
H a▁ll</w>
▁win ds</w>
▁par ks</w>
▁analy sts</w>
▁Wor kers</w>
▁Han a</w>
w ear</w>
th i▁n
s▁ ing</w>
memb er▁s</w>
h ol▁
eep er</w>
deung po</w>
W▁ or
H a▁n
DA Q</w>
2 8th</w>
▁inst alling</w>
▁fir ▁st</w>
▁estim ate</w>
▁di et</w>
▁Co ach</w>
w ent</w>
u ous</w>
s ev▁en</w>
p▁os ▁
p▁ re
pos sib▁le</w>
per▁ sonal</w>
on▁ y</w>
lig ence</w>
in iti
ih eung</w>
diff i▁c
chang ed</w>
Jus ti▁ce</w>
Gover ▁n
C ▁up</w>
▁th▁ ink</w>
▁strateg ic</w>
▁prob ably</w>
▁manufactur ers</w>
▁m icro
▁inten sive</w>
▁help ful</w>
▁Med ium</w>
wor▁ ks</w>
w al
sea s▁on</w>
r▁ is
o▁ to</w>
in jur
he▁ on</w>
dec lar
com▁p a▁red</w>
P a▁
Ch ung</w>
; ll</w>
▁subscri bers</w>
▁gener ally</w>
▁ad mitted</w>
v el</w>
ul ▁t</w>
oot ball</w>
n as
k n▁
c▁ au▁
U l
L G</w>
▁wit n
▁uncer tain
▁o x
▁h ired</w>
▁dis position</w>
▁d i▁
▁achiev ements</w>
▁Cri tics</w>
▁Cel sius</w>
s ter</w>
s ively</w>
s el</w>
s av
pl anni▁ng</w>
or i▁ty</w>
offic ials</w>
lo▁ st</w>
in qu
e▁ ws</w>
ent l▁y</w>
can n▁ot</w>
G A</w>
▁s c▁
▁effec tively</w>
▁doc um
▁cont ained</w>
▁acqu ired</w>
▁I sn</w>
▁Cor p.</w>
therm ore</w>
s▁ ing
s in▁g</w>
proc ed
p ir
ove▁r seas</w>
in s▁
eng er</w>
develop▁ ed</w>
a c</w>
G ro▁up</w>
C ultu▁re</w>
Ass ociation</w>
▁strateg ies</w>
▁T uesday</w>
▁Sp anish</w>
▁Sm art</w>
▁Comm unity</w>
uc tu
s▁ ts</w>
sus pen
spec i
rea son
re te</w>
qu arter</w>
in ery</w>
estab l▁
eph one</w>
em▁ bly</w>
ch a▁n</w>
c or▁
ai▁n s</w>
Tr ump</w>
O▁ ffice</w>
I sl
2 5th</w>
▁wh▁ o</w>
▁rum ors</w>
▁review ed</w>
▁equ ity</w>
▁child birth</w>
▁ch urches</w>
sur v▁ey</w>
pres cri
en c▁ed</w>
d ay▁s</w>
ci t▁y</w>
bo▁ ok</w>
an▁ cial</w>
ad▁ v
ab▁ out</w>
a eb
P▁ ol
4 6</w>
▁w estern</w>
▁mis sed</w>
▁every day</w>
▁con grat
▁c ook</w>
▁R ight</w>
▁P resid
▁Jud ge</w>
▁B MW</w>
▁200 6</w>
ual ties</w>
pl a▁
oy ed</w>
om er
j▁ ust</w>
er as</w>
diff e▁r
P resident</w>
▁stat ements</w>
▁practic es</w>
▁par ▁
▁man power</w>
▁l ▁
▁ir reg
▁gir lfriend</w>
▁em otional</w>
▁crow ded</w>
▁coll ective</w>
▁c ycle</w>
▁Th e▁re</w>
w▁h er▁e</w>
ver s▁
v al▁ue</w>
u▁ le</w>
rev ital
pr em
our c▁es</w>
n ia</w>
i▁ er</w>
ex ten
ch ar▁
ag ency</w>
T his</w>
Ass e▁m
▁mon itor</w>
▁construc ted</w>
▁G un</w>
w ould</w>
s pon
l ives</w>
g▁ an
gr ade</w>
e▁ ff▁
es el</w>
en si▁ve</w>
eli hood</w>
c▁ ity</w>
ch air
bl▁ em</w>
b er▁s</w>
V i▁ce</w>
Ph one</w>
▁unve iled</w>
▁celebr ate</w>
▁assaul ted</w>
▁Th ough</w>
▁Th ai</w>
▁M BC</w>
▁L ove</w>
w ri
th ou▁gh</w>
s▁m all</w>
spe▁ ed</w>
pro j▁
pol ici▁es</w>
jec tion</w>
i▁ n▁
in ev
en▁ tial</w>
ec▁ tion</w>
d▁ ep
St a▁te</w>
Spec i▁al</w>
4 2</w>
20▁1 9</w>
1 6th</w>
▁subsid iary</w>
▁prom ising</w>
▁incen tives</w>
▁@ ▁
with out</w>
tr ip</w>
th w
ploy ed</w>
m▁ us
iver s</w>
ios ity</w>
in▁ t▁o</w>
in tr▁
cus e</w>
ches tra</w>
all i▁ng</w>
all et</w>
B a▁nk</w>
▁sharehol der</w>
▁resear cher</w>
▁prom otional</w>
▁m i</w>
▁j oy</w>
▁bal anced</w>
▁T ea
▁Pri ze</w>
▁&a▁ pos;s</w>
ur ▁al</w>
t▁ri es</w>
si tion</w>
s ical</w>
osp it▁al</w>
n ig▁ht</w>
me▁ et▁ing</w>
lis ▁
ew or
ch e
appro priate</w>
and i▁ng</w>
M i</w>
2 3rd</w>
▁rec ession</w>
▁prom p
▁ear n</w>
▁contr ary</w>
▁cl othing</w>
▁ab sor
▁11 9</w>
w a▁n</w>
sit es</w>
sh al▁l</w>
or▁ ted</w>
mid d▁le</w>
il ▁ed</w>
fr aid</w>
f u
Hy und▁ai</w>
Busin e▁ss</w>
Bareun mir▁ae</w>
▁typ ical</w>
▁rob ot</w>
▁med al</w>
▁cl erk</w>
▁Sh anghai</w>
▁Is ra
▁@▁ -@</w>
w el▁l</w>
s▁h ou▁ld</w>
se▁ e</w>
s anc▁
retu▁r n</w>
pr ices</w>
m etropolit▁an</w>
ic als</w>
ey es</w>
com i▁ng</w>
c oll▁
c ili
▁viol ating</w>
▁n oodles</w>
▁fri ed</w>
▁chea p</w>
▁M oo</w>
▁C ard</w>
▁3 7</w>
t m▁ent</w>
s▁ ung</w>
s ign▁
ne w▁
m aking</w>
j un▁g</w>
em ploy▁
ell i▁ng</w>
du ty</w>
Wor ld</w>
W h▁
Indus tri▁al</w>
G a▁ng
2 4th</w>
▁m oon</w>
▁g ifts</w>
▁equ ivalent</w>
▁cultur es</w>
▁cap abilities</w>
▁arti stic</w>
streng th
st able</w>
ra th▁er</w>
pop ul▁
l▁ ook</w>
h ou▁rs</w>
ga▁ ve</w>
expl ain▁ed</w>
chil d
ch i▁ld</w>
a▁ ti▁
at▁ t
at▁ io▁ns</w>
atte▁n t▁ion</w>
▁un t▁il</w>
▁spea king</w>
▁semin ar</w>
▁ar gue</w>
▁Th eir</w>
u▁ g
mit ting</w>
lawmak ▁er</w>
er▁ ce</w>
ere in
bur s
avil ion</w>
allig rap
ai▁ ly</w>
&qu ▁o▁t;</w>
▁the i▁r</w>
▁sim ultan
▁mut atis</w>
▁M etropolit▁an</w>
u▁ t
tic ▁e</w>
ow▁ ing</w>
ijeong bu</w>
f▁ er</w>
f ar▁
e▁r a</w>
cer tif
bas▁ ic</w>
J oon</w>
J a▁p
Dep artme▁nt</w>
▁ph r
▁perspec tive</w>
▁notif ication</w>
▁mar tial</w>
▁h an
▁fr▁ ont</w>
▁KOS PI</w>
▁G reat</w>
▁For ce</w>
▁1 20</w>
▁ it</w>
t▁ oo</w>
produ▁c t</w>
po▁ in
par ki▁ng</w>
off i▁ci
ma▁ d▁e</w>
manag e▁ment</w>
m e▁nts</w>
itt▁ le</w>
ener gy</w>
appl i▁ed</w>
R e
P l▁
G roup</w>
▁pre ven
▁orig in</w>
▁expec tation</w>
▁Str ategy</w>
▁Lun ar</w>
▁H a
wh o▁se</w>
to▁ ld</w>
so▁ ld</w>
s old</w>
pr▁ov ide</w>
mod▁ el</w>
iz▁ at▁ion</w>
ee th</w>
dis clos
d rew</w>
b illion</w>
G an▁g
▁tit led</w>
▁th ea
▁re ference</w>
▁n e
▁lik es</w>
▁l ot
▁fac es</w>
▁con g
▁L ondon</w>
▁H ist
vi ol▁
per cent</w>
pa▁ ss
k e▁t</w>
indus▁ trial</w>
en s▁
d riv▁
ch e▁ck</w>
bl es</w>
ac▁ h</w>
Y eon
S er▁
Ce▁n ter</w>
▁t▁ he</w>
▁str onger</w>
▁mut andis</w>
▁conf usion</w>
▁F ederal</w>
▁F TC</w>
▁Comm erce</w>
un ch</w>
org an▁
op hy</w>
o ti▁
m ust</w>
ir ty</w>
eg ae</w>
c old</w>
Co▁m m
2 9th</w>
0 5</w>
▁sh el
▁p roud</w>
▁eas ing</w>
▁c ute</w>
▁5 ,000</w>
s▁t ud
pos▁ it▁ion</w>
ow ns</w>
ma▁ il</w>
l aw▁
i▁ onal</w>
emb l▁y</w>
ef▁f o▁rts</w>
eff e▁ct</w>
co▁ un▁
cor p▁or
augur ation</w>
am e▁s</w>
ad em▁
a os</w>
▁sl eeping</w>
▁propos als</w>
▁h ospital
▁R en
▁Olymp ic</w>
▁Ac ts</w>
▁ ti▁on</w>
re▁ en</w>
requ ir
mi▁ll i▁on</w>
me▁ eting</w>
m ay▁or</w>
ev en▁ts</w>
do▁ or</w>
cl ▁e</w>
cit▁ iz
U▁ .S.</w>
&a▁p▁os ;▁s</w>
▁su fficient</w>
▁moun tains</w>
▁mak eup</w>
▁compl icated</w>
▁ass embly</w>
▁U n</w>
▁Song pa</w>
▁Comm and</w>
tr illi▁on</w>
r▁ athe▁r</w>
r▁ a
rup ted</w>
rec on
ous ▁e</w>
occ up
en▁ ti
ee ing</w>
app ing</w>
S chool</w>
B ank</w>
▁t un
▁shor tly</w>
▁qu ar
▁m o▁
▁ac compl
▁C N
you▁ th</w>
st ep</w>
po▁ s▁
ott en</w>
op en▁ed</w>
iz ure</w>
hist o▁ry</w>
el ine</w>
be t▁ween</w>
M y
Ch u▁ng</w>
C oll
A D</w>
▁supplem entary</w>
▁pres erv
▁pen insula</w>
▁ir on</w>
▁i s▁
▁fru its</w>
▁fos tering</w>
▁extr a
▁ex it</w>
▁L ake</w>
ul▁ d</w>
resid enti▁al</w>
parag ra▁ph</w>
ic le</w>
c a▁rs</w>
c anc▁
S ub
C l▁
▁week ends</w>
▁war ned</w>
▁mark ed</w>
▁attrac tions</w>
▁Prot ection</w>
x i</w>
tr av▁
tr ade</w>
pr▁ ep
os ted</w>
od aemun</w>
o ons</w>
ir s</w>
illeg ▁al</w>
ic▁ ts</w>
f und</w>
e ing</w>
du▁r in▁g</w>
R▁ W</w>
Ch ang
9 5</w>
▁spec ies</w>
▁sav ings</w>
▁pro ve</w>
▁h ire</w>
▁exc eeding</w>
▁dis coun
▁destro yed</w>
▁c able</w>
▁achiev ement</w>
▁Mongol ia</w>
▁C are</w>
si k</w>
rel eased</w>
pers o▁ns</w>
i▁n to</w>
il i▁
ie▁ f</w>
f ic
e▁n ▁
er ial</w>
c▁ are</w>
con f▁
b▁l em</w>
an▁ ces</w>
ai▁ ls</w>
ad d▁
Su per
G im
4 4</w>
▁w ▁h
▁th o▁se</w>
▁six th</w>
▁prem iums</w>
▁over whel
▁Da ewoo</w>
▁6 00</w>
su ant</w>
r▁ u
o▁w er</w>
m▁ .</w>
gh▁ t</w>
fam ili▁es</w>
d▁ am
contro ver▁sy</w>
agric ultur▁al</w>
S oci▁al</w>
4 3</w>
3 0th</w>
▁mom entum</w>
▁furn iture</w>
▁eng ineering</w>
▁b ul
te▁ ll</w>
organiz ▁ed</w>
iv ▁er</w>
in spe▁c
e▁n sive</w>
est ors</w>
d u▁st</w>
O K</w>
Eng lish</w>
Ch airpers▁on</w>
▁un known</w>
▁semiconduc tors</w>
▁s ounds</w>
▁ex istence</w>
▁U N</w>
▁Jin ju</w>
▁Ad ministrative</w>
t arg
sti▁ tu
h▁ t</w>
fac t</w>
contr▁ ol</w>
ch all
aes ong</w>
T our
Sp▁ ec
S ec▁
K▁or▁ ea</w>
▁ship ped</w>
▁reg ret</w>
▁qu iet</w>
▁observ ed</w>
▁kn owing</w>
▁gir ls</w>
▁den ied</w>
▁com fort</w>
▁circ le</w>
▁S e▁
▁Rep ubl
▁Jeon nam</w>
▁Gang dong</w>
▁Ch osun</w>
▁5 5</w>
▁ atio▁n</w>
suspec t▁ed</w>
prov id▁ed</w>
ot▁ e</w>
om▁ y</w>
investig▁ ation</w>
h aps</w>
dis p
dep art
con▁ cer
S elf</w>
▁neigh bors</w>
▁mat h</w>
▁k illing</w>
▁go▁ in▁g</w>
▁acc es
▁S elf</w>
▁N o
▁D av
st ep
s il
re plac
r igh▁ts</w>
pr i▁v
pl ic
offic ▁e</w>
inter pre
end ant</w>
b a▁nd</w>
R ec
In t▁ern
5 G</w>
▁w illing</w>
▁sh▁ all</w>
▁don ations</w>
▁brea king</w>
▁ar ▁e</w>
▁Ye osu</w>
▁P C</w>
▁M c
tr ust</w>
to▁ ur
it ain</w>
form ati▁on</w>
fir ▁
excell e▁nt</w>
en ty</w>
a▁b ou▁t</w>
H ae</w>
E ducation</w>
▁led ger</w>
▁g all
▁col orful</w>
▁T aek
truc tion</w>
our▁ th</w>
negoti atio▁ns</w>
h▁ wa</w>
h▁ ealth</w>
e▁n e</w>
e▁ et</w>
ett e▁r</w>
et ti▁ng</w>
am un</w>
ak ed</w>
Sam sung</w>
S c▁h
S am▁
▁viol ated</w>
▁stud io</w>
▁perc eption</w>
▁per su
▁accoun ted</w>
▁Mar ine</w>
▁20 ,000</w>
s▁y s▁tem</w>
s▁ k
st o▁re</w>
ref lec
r a▁n
ex▁ c
em en▁ts</w>
c er</w>
al ▁e</w>
add it▁ional</w>
▁m ine</w>
▁att or
▁a g▁
▁S aem
▁Indi an</w>
▁Fur thermore</w>
▁Chung nam</w>
▁2 7
t▁w ee▁n</w>
tr av
ti▁v al</w>
sec tion</w>
publ i▁c</w>
eo▁ l</w>
c▁ ess</w>
ch o
Intern at▁ional</w>
F▁ or
4 7</w>
▁un employment</w>
▁succ eed</w>
▁rest ore</w>
▁reflec ting</w>
▁op tim
▁el ements</w>
▁earn ings</w>
▁charg ing</w>
▁c elebrities</w>
▁advis ory</w>
▁D r.</w>
▁B rexit</w>
ul n
s▁ ay</w>
st yle</w>
s o▁ng</w>
iqu es</w>
ing dom</w>
i efs</w>
er ci
c am
at ings</w>
T O</w>
L and</w>
▁trea sury</w>
▁th i▁nk</w>
▁leg s</w>
▁extra ordinary</w>
▁eng age</w>
▁dea ths</w>
▁W ith
▁I m</w>
▁2 3
ph ys
ific ally</w>
h uman</w>
do▁ esn</w>
de f▁
competi ti▁on</w>
av ▁e</w>
an ches</w>
ak ▁e</w>
M▁ inis
5 ,000</w>
▁hop ed</w>
▁deleg ation</w>
▁contain er</w>
▁busin ess
r▁ o
oper ati▁ng</w>
iz za</w>
for ced</w>
e▁nt al</w>
di▁ n▁g</w>
R o▁
▁util ization</w>
▁u ▁
▁sac rif
▁rep ayment</w>
▁m echan
▁m arg
▁break fast</w>
▁Ar gent
v i▁s
ow e▁d</w>
op eration</w>
m ly</w>
introduc ▁ed</w>
import a▁nt</w>
e▁n ing</w>
c▁ aus
coun c▁il</w>
confir m▁ed</w>
al rea▁dy</w>
S oon</w>
H i▁gh</w>
▁t ot
▁t end</w>
▁col onial</w>
▁co al</w>
▁bo oth</w>
▁Per sons</w>
▁Gyeong ju</w>
w id
r▁ an</w>
res ults</w>
po▁r ts</w>
partic i▁p
ic ▁ed</w>
househ ol▁ds</w>
en▁ ded</w>
dam a▁ge</w>
con di▁
c y
a▁l es</w>
O n
▁pregn ant</w>
▁j u
▁em otions</w>
▁c o▁uld</w>
▁advis ed</w>
▁G umi</w>
▁Elec tion</w>
▁Bel g
▁20 22</w>
t▁ ors</w>
tr▁ ies</w>
tr ans▁
ref e▁r
p sych
o on
mat ters</w>
id arity</w>
i el
fam iliar</w>
execu ti▁ve</w>
dem onstr
cr isis</w>
bui▁l t</w>
a▁ us▁e</w>
an oth▁er</w>
ab▁ il▁ity</w>
Sec ur
N o▁rth</w>
D aej
Comm▁ it▁tee</w>
▁mov es</w>
▁m igr
▁larg ely</w>
▁grad uation</w>
▁ch ronic</w>
▁accommod ation</w>
▁Reg ulations</w>
▁M apo</w>
un gri</w>
in tro▁
frastruc tu▁re</w>
ex i▁st
e ously</w>
an tial</w>
Or dinance</w>
H er
G overnor</w>
B e
▁ver ify</w>
▁pat tern</w>
▁ma them
▁instruc tors</w>
▁ch at</w>
▁Inspec tion</w>
▁Environ mental</w>
ti n</w>
s▁ tr▁
si t▁e</w>
r▁ ec▁
r ice</w>
prec ed
oll ywood</w>
m▁ on▁
l▁ ast</w>
ket ball</w>
jec t▁s</w>
fl oor</w>
fa▁m ily</w>
facil i▁ty</w>
ea▁ st</w>
bec o▁m
au th▁
announ c▁
af tern
P S</w>
201 4</w>
▁u tive</w>
▁st y
▁s ugar</w>
▁norm ally</w>
▁join ing</w>
▁g ▁
▁fl oo
▁dis charge</w>
▁an cient</w>
▁S us
▁S a
▁P res
u t▁e</w>
th▁ eir</w>
tak ▁en</w>
per i
ot▁ te</w>
ne▁ ws</w>
d e▁rs</w>
c▁ o
ar ▁t</w>
M an
5 3</w>
▁in ner</w>
▁equ ality</w>
▁dec eased</w>
▁d ress</w>
wo▁ ok</w>
str eam</w>
pre h
ow in▁g</w>
oper at▁ed</w>
mark ets</w>
lif ▁e</w>
l ev
iz a▁tion</w>
iv ▁es</w>
gh ts</w>
gener al</w>
c ro
additi on▁al</w>
M A</w>
▁suspen d</w>
▁sol o</w>
▁ph ilos
▁o ff▁
▁en ds</w>
▁d ur
▁&qu ▁o▁t;</w>
w▁ a</w>
v ▁es</w>
ti m</w>
ta in▁
t ments</w>
serv ▁ed</w>
pas s▁ed</w>
m un</w>
im pl▁
fl o
e▁ar ch</w>
bu▁ s
bi▁ll i▁on</w>
b an
at o▁rs</w>
▁objec tion</w>
▁minim ize</w>
▁ar en</w>
▁Hy o</w>
ob ong</w>
n ucle▁ar</w>
mis si▁on</w>
if▁ ic
ett es</w>
des i▁gn</w>
con nec
L ib▁
Gy▁eong gi</w>
▁st artups</w>
▁sol ving</w>
▁sav ed</w>
▁reg ularly</w>
▁reflec ts</w>
▁p edestr
▁ordin ances</w>
▁har v
▁gu ilty</w>
▁dem anding</w>
▁c oin
▁S im
ti ms</w>
stor es</w>
pr▁ ot
p resident</w>
or able</w>
on a▁l</w>
mat h</w>
i▁t al</w>
itt▁ en</w>
h oon</w>
g▁row th</w>
ex c▁
ent▁ r
cooper ation</w>
c us▁
a▁ round</w>
ativ ▁es</w>
P▁ ro
M▁ in▁
K T</w>
Def en▁se</w>
▁with draw</w>
▁t end
▁system atic</w>
▁rel ocation</w>
▁rel ax
▁politici ans</w>
▁p ow
▁attrac tion</w>
▁M an</w>
▁B ol
w el▁
ul▁ ture</w>
th ▁s</w>
s▁ is</w>
se e▁ms</w>
off ee</w>
m▁ ost</w>
m ent
l▁ aw
impo▁r tant</w>
f ound
ea▁ l
bri ef
a▁l k</w>
aw a</w>
ang ▁e</w>
Min i▁s
Ch in▁a</w>
201 3</w>
▁minis tries</w>
▁immedi ate</w>
▁def icit</w>
▁Sup er</w>
▁D ream</w>
▁5 0,000</w>
ut ation</w>
professi on▁al</w>
o▁ i</w>
or i▁g
lo ad</w>
h▁ yun</w>
cons ul
2 2nd</w>
▁un clear</w>
▁legisl ative</w>
▁form al</w>
▁fl u
▁fac ilit
▁dis mant
▁dep ends</w>
▁collabor ation</w>
▁b oss</w>
▁Mr .
vis iti▁ng</w>
se▁ nd</w>
pa▁r ty</w>
op port▁
on ers</w>
m oun
fi▁ ed</w>
ez uel
eti me</w>
c elebr
accor dan▁ce</w>
Or din▁
D on
. m▁.</w>
▁sol utions</w>
▁re hab
▁l iber
▁h ole</w>
▁cas ualties</w>
▁ban king</w>
▁b e▁
▁an c
un▁ g
ugg age</w>
r▁ ole</w>
n ic</w>
l t;</w>
l at
i▁c k</w>
inc re▁
g▁ roup</w>
dec rea
bit r
ag ue</w>
K o▁r
D▁ ae</w>
▁short age</w>
▁pur sue</w>
▁n ovel</w>
▁fin als</w>
▁d ealing</w>
▁coll ea
▁Ye ouido</w>
▁Som etimes</w>
▁Per iod</w>
progr am</w>
ou ths</w>
on o▁my</w>
d▁ er
c▁h an▁ge</w>
ag i▁ng</w>
A cc
▁th ick</w>
▁ten sion</w>
▁so ftware</w>
▁r ains</w>
▁pos ts</w>
▁deleg ated</w>
v ▁ed</w>
ur g
resid ent▁s</w>
pen ed</w>
ou ts</w>
o ked</w>
loc ▁
gr a▁
fl edg▁ed</w>
e▁ al</w>
ewor thy</w>
ef▁ t</w>
d em▁
cont▁ in
▁un ions</w>
▁sh ock</w>
▁remov al</w>
▁for get</w>
▁an ger</w>
▁ac knowl
▁U. N.</w>
▁Sch ol
we▁l fare</w>
str ateg
r es</w>
p▁er son</w>
minim ▁um</w>
m on</w>
devel▁ op</w>
comm ission
az ▁
▁valu able</w>
▁sc ulp
▁num erous</w>
▁inter views</w>
▁amoun ts</w>
▁T ell</w>
▁G en
un ded</w>
ul ates</w>
t▁ ant</w>
sti ll</w>
pre▁ vious</w>
pre▁ s
ou t▁
o ing</w>
o b▁er</w>
m▁ aking</w>
min utes</w>
f▁ ter</w>
e▁as y</w>
exper ▁ts</w>
develo▁p m▁ent</w>
contin u▁ed</w>
a▁r k</w>
av ed</w>
an t▁
ac ti▁v
Pres▁ iden▁t</w>
▁revital ization</w>
▁oppon ent</w>
▁correspon ding</w>
▁cont acted</w>
▁cons ol
▁Presid ential</w>
po▁l icy</w>
om ▁e</w>
institu tio▁ns</w>
bl ock
avoid able</w>
at eful</w>
Q u
P o
M yung</w>
J os
Econom ▁ic</w>
Ass oci▁
A ▁h
▁pl ate</w>
▁f ewer</w>
▁f at</w>
▁D e
▁Comp etition</w>
▁Am bassador</w>
sh a▁re</w>
mark e▁t</w>
int▁er▁ est</w>
bu▁ d
an ymore</w>
acc ident</w>
Pol i▁cy</w>
Je o▁ng</w>
I P</w>
▁identi fication</w>
▁i l</w>
▁hom epage</w>
▁gu ys</w>
▁el ev
▁dismis sal</w>
▁design s</w>
▁des per
▁Particip ants</w>
▁J ongno</w>
▁D aily</w>
▁Budd ha</w>
▁B road
s▁ ite</w>
sec▁ urity</w>
pr▁ es▁
l▁ik▁ ely</w>
j a▁e</w>
in▁ come</w>
illing ness</w>
h ap▁
esti▁ g
es is</w>
S ▁u
M ark
▁rev eal</w>
▁m ent
▁f eared</w>
▁exchang ed</w>
▁diagnos ed</w>
▁dang er</w>
▁c igar
▁acc ept
▁Ass et</w>
▁3 D</w>
view ers</w>
v arious</w>
und ang</w>
shar i▁ng</w>
r▁ oom</w>
or mit
long ed</w>
ld wide</w>
implem ent
if ier</w>
h igh▁er</w>
end ers</w>
consid er
a▁p p▁
at ell
T ai
G od</w>
2 7
▁wel come</w>
▁tal ented</w>
▁t or
▁ag gres
▁Tur kish</w>
▁O k
▁Br anch</w>
▁200 5</w>
st an</w>
s ea▁
r ors</w>
pos s▁
on▁ ic</w>
m uc▁h</w>
is ▁e</w>
h▁ ope</w>
ali for
ak en</w>
▁us eful</w>
▁uni form</w>
▁r ises</w>
▁op tion</w>
▁off line</w>
▁man ual</w>
▁inf ants</w>
▁e n▁
▁des k</w>
▁ch em
▁but ton</w>
▁ass istant</w>
▁Comp anies</w>
▁C amp
▁3 0,000</w>
t ou▁r
ro o▁m</w>
olog ic▁al</w>
ke▁ ep</w>
in fl▁
il▁l egal</w>
e▁n dly</w>
eri a▁ls</w>
e ff▁
del iver
con d▁uc
comp▁ any</w>
ar▁ d
ac ti▁ng</w>
W ▁h
R oh</w>
Amer ic▁an</w>
A ▁u
A n▁
5 ▁th</w>
▁p anel</w>
▁h asn</w>
▁correc tion</w>
▁S il
▁H appy</w>
▁C SAT</w>
xim ately</w>
th e
str ong</w>
os h
m▁ obile</w>
h▁ an</w>
g▁ ive</w>
gover▁n me▁nt</w>
evalu ati▁on</w>
d ivid
ac▁ k
J anu
Bl ue</w>
▁transl ation</w>
▁tel ephone</w>
▁pr ay</w>
▁n eck</w>
▁loc ations</w>
▁extrem ely</w>
▁exc eeds</w>
▁S illa</w>
▁For um</w>
vill a▁ge</w>
sup p▁ly</w>
p▁ar ty</w>
ock et</w>
i▁d ent</w>
f a▁ct</w>
expen s▁es</w>
ev en▁t</w>
es p
cl ub</w>
a▁ n▁
anc ement</w>
ai▁r ma▁n</w>
Ko▁ re
9 8</w>
2 n▁d</w>
▁tri als</w>
▁t ough</w>
▁restruc turing</w>
▁dr inks</w>
▁attemp ted</w>
▁Sh ould</w>
▁Represent atives</w>
▁Ex cuse</w>
wh▁ eth▁er</w>
som ▁e</w>
ri ous</w>
ri d</w>
po▁l itan</w>
ow ners</w>
op pi▁ng</w>
j▁ oo</w>
g rou▁ps</w>
ex pl▁
consec u
O S</w>
Lea g▁ue</w>
Dae▁ gu</w>
Ar ticle</w>
9 9</w>
▁qu arters</w>
▁purch ases</w>
▁nerv ous</w>
▁m on▁
▁impres sion</w>
▁en v
▁b o▁
▁Lea der</w>
▁Eng ineering</w>
tr ical</w>
t el
s af
prais al</w>
n ear</w>
lo om
j o▁on</w>
ex erc
ec tions</w>
ea st</w>
ch ec
ber ty</w>
Y e▁
Sept emb▁er</w>
C u▁l
1 2▁
▁w ou▁ld</w>
▁sugg est</w>
▁libr aries</w>
▁immigr ants</w>
▁d um
▁coun ter</w>
▁V is
▁Res ources</w>
▁L ater</w>
transport ati▁on</w>
s ay▁ing</w>
reg i▁on</w>
inv es▁t
am i</w>
O c▁
Na▁ tional</w>
J oo</w>
Inv est
Dem oc▁ratic</w>
8 8</w>
▁st ake</w>
▁slow ly</w>
▁s i▁nce</w>
▁pass port</w>
▁ob st
▁hom etown</w>
▁ch ances</w>
▁H eo</w>
y m</w>
s afe</w>
reg a▁r
pl▁ ay
ok do</w>
is▁ h</w>
increa si▁ng</w>
i ances</w>
g t;</w>
d▁ it</w>
differ ent</w>
c▁ ame</w>
Y a▁ng</w>
Oper ati▁on</w>
N a</w>
5 0
▁un likely</w>
▁stom ach</w>
▁sp ir
▁k eeps</w>
▁exam ples</w>
▁U l
▁Cl ub</w>
t ude</w>
s▁ elf</w>
s ep
p▁er s▁on</w>
over ing</w>
org a▁n
of▁ f</w>
m▁ i</w>
m ine</w>
m emor
j oo▁n</w>
e ye</w>
d eok</w>
St ati▁on</w>
J a▁e</w>
▁t ight</w>
▁sub contrac
▁sign al</w>
▁rel ▁
▁pas ses</w>
▁med iation</w>
▁int ellectual</w>
▁hand led</w>
▁g as
▁conn ect</w>
▁W all</w>
▁Sh ins
▁Kum ho</w>
▁Auth ority</w>
sp re▁ad</w>
res ▁p
rais i▁ng</w>
pop ul
og an</w>
lea▁ st</w>
l ig▁ht</w>
is ms</w>
insur an▁ce</w>
ho▁ l▁d</w>
fi el
e▁n ed</w>
d▁ el
dr ama</w>
ch airpers▁on</w>
b ery</w>
▁vir tual</w>
▁per i
▁bu yer</w>
▁al on▁g</w>
▁a ro
▁W at
▁Swed en</w>
▁L eg
ym nas
ut e▁s</w>
n oc
fem a▁le</w>
exp e▁ct▁ed</w>
dec ision</w>
con vers
cap it▁al</w>
cand i▁d
b▁ et▁ter</w>
be▁ fore</w>
ass oci
al ities</w>
▁pass age</w>
▁im pris
▁conf ident</w>
▁P or
▁Enter tainment</w>
▁Candid ate</w>
▁20 0,000</w>
spe▁ cial</w>
sa▁ f
s un
ph o▁to</w>
par ents</w>
n i</w>
im u▁m</w>
i o
di a</w>
ang yo</w>
ac ti▁on</w>
S y
O P</w>
▁tr a
▁st ro
▁s essions</w>
▁res ignation</w>
▁juven ile</w>
▁h n
▁c iting</w>
▁b anned</w>
▁attemp t</w>
▁T ake</w>
▁Conf ederation</w>
▁Con s
▁B it
tw ave</w>
re▁g ular</w>
re▁ su▁l
person n▁el</w>
p ack
om▁ an</w>
ocol ate</w>
g ove▁rn
e▁ ed</w>
d im
conv en▁
con tro▁
comp▁an i▁es</w>
b▁ ro
b udg
b at
ac▁ ts</w>
S▁e ou▁l</w>
St ates</w>
Se ok</w>
Li▁ berty</w>
F or▁
5 8</w>
▁un avoidable</w>
▁tr an
▁t astes</w>
▁re wards</w>
▁ra ises</w>
▁p ig
▁mill ions</w>
▁in corpor
▁conc rete</w>
▁bo xes</w>
▁apolog ize</w>
▁W ell</w>
▁K BS</w>
ul ▁es</w>
tr i▁
s▁ al
sh or
p▁l eas▁e</w>
p▁l ease</w>
pur po▁se</w>
op▁ ment</w>
i▁st▁ ry</w>
ir able</w>
f un</w>
d ur
be▁ li
a▁ ff
Y u</w>
W a</w>
2 .
▁vis ible</w>
▁sugg ests</w>
▁st ands</w>
▁spons ored</w>
▁recon struction</w>
▁r atings</w>
▁par ent</w>
▁issu ing</w>
▁consult ations</w>
▁c rew</w>
▁Y e</w>
▁Jeon buk</w>
yr ics</w>
v▁ al
s▁ ome</w>
rec e▁nt</w>
qu ar▁
li▁ st</w>
k▁ ind</w>
k▁ i</w>
h yeon</w>
e th
di e</w>
ch u▁l</w>
bo a▁rd</w>
b ar
A ugust</w>
▁pas tor</w>
▁mach ines</w>
▁gr ound
▁evac u
▁cr u
▁bur ned</w>
▁b en
▁argu ment</w>
▁M aybe</w>
▁M anch
w▁ een</w>
u▁n de▁r</w>
ta i▁n</w>
qu es▁
poin ts</w>
i▁ ving</w>
c▁h a▁nge</w>
a▁ir s</w>
anc er</w>
L ED</w>
&apos; m</w>
▁t eeth</w>
▁sustain able</w>
▁rehab ilitation</w>
▁f are</w>
▁br anches</w>
▁a fraid</w>
▁U ijeongbu</w>
▁4 8</w>
tif ication</w>
s▁y st▁em</w>
sing le</w>
ot ers</w>
m▁ar▁ ket</w>
im a</w>
fac ts</w>
ear ning</w>
Jap a▁n
F u▁nd</w>
Ch airman</w>
Associ atio▁n</w>
1 0▁
&▁ap▁os ;t</w>
▁pr ide</w>
▁pos ting</w>
▁not eworthy</w>
▁fr ustr
▁con gl
▁competi tions</w>
▁G ye
▁For tunately</w>
ye▁ ars</w>
tr an▁s
ser▁ vice</w>
s ports</w>
ro ads</w>
par t▁y</w>
et ely</w>
di▁ ed</w>
critici z▁ed</w>
Ad minis
5 1</w>
▁vess els</w>
▁th e▁y</w>
▁sup porters</w>
▁sett le</w>
▁gen re</w>
▁fil es</w>
▁claim ing</w>
▁chea per</w>
▁T est</w>
▁J ob</w>
▁Arab ia</w>
w▁ ould</w>
wh er▁e</w>
pro▁ ject</w>
press way</w>
op▁ er
le▁ ading</w>
l ands</w>
d▁ ays</w>
ar▁ ts</w>
ar ch
D em▁
D ec▁
▁w rap
▁stor ed</w>
▁r iding</w>
▁h orse</w>
▁const ant</w>
▁autom obile</w>
▁atten d
▁W inter</w>
▁Pl an</w>
w▁ an▁t</w>
w ri▁
vid eo</w>
th or
so▁ cial</w>
sh o▁rt</w>
red u▁ce</w>
of▁f ice</w>
n ational</w>
ma▁r k</w>
it ably</w>
f av▁
elec tions</w>
ar i▁ng</w>
&a▁ po▁s▁
▁w ouldn</w>
▁or dering</w>
▁inten se</w>
▁fin alized</w>
▁f i▁rst</w>
▁en ters</w>
▁dist inc
▁ch eering</w>
▁M yeong</w>
▁Ch ae</w>
▁4 2</w>
▁3 9</w>
ve▁ h
u▁n ity</w>
tion ally</w>
or ders</w>
od a</w>
n e▁rs</w>
issu▁ es</w>
e▁v ent</w>
ee▁ p</w>
c▁ ut</w>
com pens
c and▁
bec ome</w>
ap yeong</w>
M ov
Comm issi▁on</w>
4 1</w>
▁rad io</w>
▁met al</w>
▁law yers</w>
▁interpre tation</w>
▁flo ors</w>
▁confron tation</w>
▁b id</w>
▁J am
t yp
s ens
r i▁ce</w>
per f
p rivate</w>
ow ned</w>
ob ▁s</w>
mob i▁le</w>
itiv ely</w>
e▁r al</w>
b rea▁
au▁ lt</w>
as tically</w>
ai▁n ing</w>
B a▁
▁wh i▁le</w>
▁vir tually</w>
▁tri ps</w>
▁lea ked</w>
▁grow s</w>
▁expres sing</w>
o▁n al</w>
or▁ ity</w>
l▁ ess</w>
investig▁ atio▁n</w>
id en▁ts</w>
fr i▁
d a
c a▁rd</w>
ac t▁or</w>
S eptember</w>
P op</w>
D es
C C
6 3</w>
&ap▁os;▁ re</w>
▁urg ently</w>
▁telecomm unication</w>
▁neighbor ing</w>
▁max im
▁conn ecting</w>
▁S quare</w>
▁P acific</w>
▁B o</w>
tra ff▁ic</w>
sch oo▁ls</w>
pl ant</w>
pa▁ ss</w>
n e▁c
high e▁st</w>
fo▁ ll
en▁ ess</w>
aver a▁ge</w>
a .▁m.</w>
H ouse</w>
&ap▁os; t</w>
▁ship building</w>
▁ret ail</w>
▁hop es</w>
▁equ al</w>
▁democr acy</w>
▁br inging</w>
▁a d▁
▁Ven ezuel
▁U pon</w>
▁Rev olution</w>
▁G M</w>
win ni▁ng</w>
um a</w>
t t
str en▁g
pr▁o duct</w>
pr i▁
on li▁ne</w>
n▁ umber</w>
n ▁s</w>
loom berg</w>
jo▁ in</w>
h a▁r
g as</w>
du▁ ced</w>
ar▁ ound</w>
5 6</w>
▁w illingness</w>
▁s and
▁d e</w>
▁Th eater</w>
▁Prosec utor</w>
▁M E
▁Hy ung</w>
w ar▁d</w>
u ff</w>
t ex
s oo▁n</w>
rup ti▁on</w>
m▁ p
l ow▁er</w>
l eep</w>
k a</w>
it a▁l</w>
inst all
fun ds</w>
expl ained</w>
en▁ ted</w>
com▁p any</w>
cl ock</w>
ch▁ eon</w>
a▁l ways</w>
ack et</w>
ab il▁
S cien▁ce</w>
▁war eh
▁st ating</w>
▁prim ary</w>
▁laun ching</w>
▁b ill
▁N A
▁M un
yst e▁m</w>
the▁ se</w>
sub je▁ct</w>
si▁ ze</w>
r id
m an▁y</w>
iz z
h▁ erein
d▁ uring</w>
de▁ m
con o▁my</w>
con d▁
b▁ um</w>
Offic ▁e</w>
▁stat ue</w>
▁st ops</w>
▁renew able</w>
▁mo thers</w>
▁i Phone</w>
▁compl ained</w>
▁ch emical</w>
▁cal m</w>
▁Ang el
ti▁ ms</w>
s am▁e</w>
pers ons</w>
me▁m bers</w>
m yeong</w>
it ter</w>
iev ed</w>
ic ▁t</w>
h ak</w>
g iv▁en</w>
Sh in
O C</w>
▁t om
▁requ esting</w>
▁r ow</w>
▁pen ding</w>
▁neg ligence</w>
▁fre e
▁dis pos
▁bath room</w>
▁ar ch
▁F C</w>
▁Ex hibition</w>
▁20 00</w>
ve h▁
un▁ der</w>
u it</w>
the▁ me</w>
sh a▁r
sec urity</w>
r▁ ight</w>
prov i▁ncial</w>
presid e▁ntial</w>
m▁ eans</w>
m i▁s
loo ki▁ng</w>
ind u▁
ic tion</w>
h▁ igh</w>
f igh
e▁n ▁t</w>
er ty</w>
econ▁ omic</w>
devel▁ op
ast al</w>
ap artme▁nt</w>
ant a</w>
aftern o▁on</w>
I D</w>
Ch i▁ef</w>
▁rea ching</w>
▁peti tions</w>
▁ov e▁r</w>
▁for g
▁firef ighters</w>
▁cou ples</w>
▁character istic</w>
▁T or
▁Par tic
▁Con sumer</w>
▁Bur eau</w>
▁4 1</w>
w in▁
prosec uti▁on</w>
ou▁ s
os a</w>
on to</w>
m ember</w>
i▁ ew</w>
ial ▁s</w>
e▁ w
a▁c tive</w>
ai▁ gn</w>
ag en▁cy</w>
Institu t▁e</w>
H A
; d</w>
▁s an
▁respon ses</w>
▁or g
▁mov ements</w>
▁in auguration</w>
▁guarant eed</w>
▁c ast</w>
ul ty</w>
tic▁ le</w>
th▁ od</w>
pos i▁
n ati▁onal</w>
is▁h ed</w>
improv eme▁nt</w>
form ing</w>
exi▁st ing</w>
ess e▁s</w>
em atic</w>
e ffic
a▁r i▁
az y</w>
Techn olo▁gy</w>
Con f
▁s ought</w>
▁com ▁
▁3 00,000</w>
vi e▁w</w>
t e
pos ure</w>
m▁ any</w>
med i▁
l▁ ead</w>
i w
h igh▁
d ir▁
ch eck</w>
c ut</w>
a▁m ong</w>
A▁h n</w>
▁t ools</w>
▁s par
▁res istance</w>
▁discharg ed</w>
▁day time</w>
▁attrac tive</w>
▁K inderg
u▁r ity</w>
su▁r es</w>
sched ul▁ed</w>
p▁ res
progr a▁ms</w>
om m▁
me▁m b▁ers</w>
m ag
it ude</w>
ir e▁ct</w>
ie▁ ve</w>
hav i▁ng</w>
ge▁t ting</w>
fl u
est a▁te</w>
elec om</w>
cus t▁om
ar row
Pol i▁ce</w>
G ove▁rn
En forceme▁nt</w>
▁se izure</w>
▁mid st</w>
▁fi re
▁bir ds</w>
▁bid ding</w>
▁E un
▁C redit</w>
▁ ement</w>
w▁ ays</w>
un i▁
se▁r v▁
s o▁ns</w>
s k</w>
p op▁
o▁p ment</w>
o▁ ff▁ice</w>
join▁ ed</w>
comp▁ anies</w>
c ould</w>
am in</w>
ad o</w>
L ife</w>
&a pos▁;
▁strugg le</w>
▁p apers</w>
▁l uggage</w>
▁inv esting</w>
▁compens ate</w>
▁P rem
▁O p
▁Des ign</w>
▁Br itain</w>
s▁c ale</w>
sc ene</w>
requ ▁
prin ci
m em
l ost</w>
i▁ sion</w>
it er</w>
establish me▁nt</w>
enc i▁es</w>
c el</w>
broad ca▁
aw ing</w>
▁w eb</w>
▁un familiar</w>
▁res ource</w>
▁per mit</w>
▁instruc tor</w>
▁any where</w>
▁Pri or</w>
▁E as
us ive</w>
us e▁d</w>
s tic
otten ham</w>
o T</w>
m i▁d
lear ni▁ng</w>
increa se</w>
i enc▁e</w>
fa▁ ir</w>
en▁ tly</w>
c▁ le</w>
c our▁
c ot
applic ati▁on</w>
and a</w>
ad a</w>
ab o▁r</w>
Min i▁st▁ry</w>
▁sub mission</w>
▁sex ually</w>
▁res ume</w>
▁reorganiz ation</w>
▁grand mother</w>
▁ch ain</w>
und ae</w>
u a▁l</w>
res tric
k eep</w>
j oint</w>
il▁l i▁on</w>
fort unately</w>
em ▁ed</w>
d on▁
c ateg
a▁ r▁
am en</w>
N A</w>
L ot▁te</w>
F o▁od</w>
& q▁u▁ot;</w>
▁subsid ized</w>
▁m yst
▁l on
▁ch air</w>
▁D et
▁B er
ye e▁s</w>
ta▁ ge</w>
t g
s▁ im
r at▁e</w>
m yung</w>
l▁ ack</w>
k▁ n
ir▁ st</w>
i an▁ce</w>
eval u▁
c▁ annot</w>
con stitu
at▁ h
am ent</w>
al▁ f</w>
Administr ati▁on</w>
▁str ict</w>
▁stea dy</w>
▁psych ological</w>
▁mot or</w>
▁hea ted</w>
▁cam eras</w>
▁c art
▁Taek wondo</w>
▁Shins egae</w>
▁Rev iew</w>
▁K wak</w>
▁Jin ping</w>
w▁it h▁in</w>
tu▁r n</w>
sum ▁
play ▁er</w>
ins eng</w>
in t▁o</w>
hear t</w>
em p▁
c▁ r▁ea
comp etition</w>
comm▁ ittee</w>
circ umst
a▁c tion</w>
A g▁
201 2</w>
▁wea pon</w>
▁serv er</w>
▁pro longed</w>
▁eg gs</w>
▁disp atch</w>
▁dec isions</w>
▁bur d
▁Investig ation</w>
▁Indones ian</w>
▁Han jin</w>
▁G e
with in</w>
v ent
s ingly</w>
och ang</w>
m▁on th</w>
fl ow</w>
et o</w>
elec tr
ec▁ te▁d</w>
eac eful</w>
aft▁ e▁r</w>
N▁ o.</w>
In ter
▁subst ances</w>
▁p ip
▁n ob
▁n eve▁r</w>
▁l angu
▁crea tes</w>
▁Stand ards</w>
▁S BS</w>
▁L ord</w>
▁Gu ard</w>
▁C o.</w>
v▁ er
un s</w>
prom ise</w>
osp el</w>
oc▁ k</w>
lo▁ c
k l
it t▁ed</w>
is▁ is</w>
ill er</w>
h and</w>
gu k</w>
f our▁th</w>
f oo▁d</w>
develo▁p ment</w>
bus in▁
b ong</w>
ann ers</w>
ac ing</w>
Un i▁
In stitute</w>
I s</w>
0 8</w>
▁h ub</w>
▁decor ated</w>
▁att ach</w>
▁Sec ond</w>
▁P anmunj
▁O s
▁Ch an</w>
▁&apos; t</w>
tin ue</w>
th▁ a▁n</w>
sp ea
son nel</w>
sid er</w>
sh in</w>
p y▁o</w>
p etr
is ti▁cs</w>
e▁ k</w>
em ployees</w>
d in▁gs</w>
communic ati▁on</w>
c entr▁al</w>
al tern
ad mi▁n
Prov ide▁d</w>
Presi▁d ent</w>
5 7</w>
▁wors ening</w>
▁n on
▁h a▁s</w>
▁fl uctu
▁ed ge</w>
▁decl ined</w>
▁Partic ularly</w>
▁Fr amework</w>
w anese</w>
su▁l a</w>
ris k</w>
ri e▁d</w>
regar di▁ng</w>
pos t
oun g
ma i▁n
in▁ ation</w>
if elong</w>
i a
g lobal</w>
g ar
eff ect</w>
dis crimin
d ed
a▁t t
ar ely</w>
ap art
R A</w>
Intern▁ et</w>
▁tal ents</w>
▁surv ival</w>
▁s is
▁p ill
▁cons ci
▁affili ates</w>
y▁ er</w>
x y</w>
con d
cl u▁d
ch▁ an</w>
ann o▁un
an tic</w>
amp s</w>
I C</w>
▁u ally</w>
▁trad ition</w>
▁sl ump</w>
▁prohib ited</w>
▁or ganic</w>
▁discus sing</w>
▁dep end
▁b oom</w>
▁M emor
▁L ibrary</w>
▁&▁ a
w oo▁k</w>
v ices</w>
ri a</w>
rea di▁ng</w>
play e▁rs</w>
ou▁ ght</w>
ou l
ocr▁ atic</w>
n eg▁
meas ure</w>
m ate</w>
i▁ ence</w>
it o▁rs</w>
ee▁ ch</w>
der ful</w>
b ri▁
b oy
b al▁l</w>
a▁mp ;</w>
a▁ ds</w>
M al
Indus t▁ry</w>
▁w e▁ll</w>
▁w ashing</w>
▁schol ars</w>
▁networ ks</w>
▁n etizens</w>
▁har der</w>
▁experi encing</w>
▁det ention</w>
▁Pre vention</w>
sy s▁tem</w>
sur v
pro jec▁t</w>
op▁ in
m▁ ents</w>
j oy
i king</w>
h e
ex▁ pl
du ▁e</w>
d ney</w>
cau g▁ht</w>
b▁ udget</w>
ans w
J o▁ng</w>
B A</w>
▁underst ood</w>
▁thous and</w>
▁sup er</w>
▁ph armaceutical</w>
▁person ally</w>
▁en coun
▁US D</w>
▁T ower</w>
▁Se ungri</w>
▁Se o▁ul</w>
▁KOS DAQ</w>
▁G ov.</w>
▁B loomberg</w>
y angju</w>
sh r
l a</w>
ilat eral</w>
e▁conom ic</w>
des ign</w>
b▁ ased</w>
a ju</w>
T alk</w>
9 7</w>
▁th a▁n</w>
▁s id
▁re tr
▁m eets</w>
▁dis tribute</w>
▁di versi
▁decrea sing</w>
▁Trans portation</w>
▁H ollywood</w>
w or▁th</w>
w ife</w>
vol un
vi ation</w>
vehic l▁es</w>
t▁ en
s n
respon▁ se</w>
pro mo
par t▁
m ail</w>
ic▁ ial</w>
f ee</w>
dro p</w>
comp an▁y</w>
cl e▁ar</w>
ai▁ l</w>
Elec tron
D S</w>
& amp▁;</w>
▁th r
▁magaz ine</w>
▁invest or</w>
▁B ang
veh ic▁le</w>
sl etter</w>
sh owi▁ng</w>
p▁ ur
p eace</w>
mat eria▁ls</w>
is t▁s</w>
inc▁ rea▁se</w>
gover▁n m▁ent</w>
govern men▁t</w>
fin ancial</w>
fam o▁us</w>
even th</w>
es t▁s</w>
der▁ ly</w>
b▁ u▁t</w>
M oo▁n</w>
▁y ea▁rs</w>
▁p up
▁inv ent
▁ill ness</w>
▁acc eler
▁D oo</w>
▁&apo▁s ;t</w>
wh▁ et▁her</w>
trad it▁ional</w>
prof it</w>
partic▁ip▁ ate</w>
ox ide</w>
ot▁ h
m ain▁
l a▁ck</w>
int▁ern al</w>
gi ene</w>
esti ons</w>
e ve</w>
cr ime</w>
cour se</w>
Su w▁on</w>
H o</w>
H ak</w>
8 5</w>
▁t esting</w>
▁s ells</w>
▁rea ction</w>
▁part ners</w>
▁ow nership</w>
▁out lets</w>
▁depar ture</w>
▁O ver</w>
ut▁ ure</w>
t▁ ow
t otal</w>
re d▁uc
r an▁ge</w>
p▁ol▁ icy</w>
ph oto</w>
on▁ gs</w>
leg ▁al</w>
l iving</w>
je▁c ts</w>
ir o</w>
id ation</w>
ic ted</w>
f▁ ore</w>
fri e▁ndly</w>
er i▁es</w>
end ations</w>
d oll
ch▁ ange</w>
a o
O ctober</w>
A▁r ti▁cle</w>
▁t ab
▁res ulted</w>
▁proc esses</w>
▁pra ised</w>
▁pat terns</w>
▁ob jects</w>
▁n ▁
▁fr ame</w>
▁ar bitr
▁Stud ies</w>
▁N ak
▁Ch e
▁Bi o
w alk</w>
v▁ en
u▁ p
tal ks</w>
m ye▁on</w>
l▁ arge</w>
in stitu▁
h ope</w>
ea c▁e</w>
d e▁r
cr▁ ea
comm i▁t
al ties</w>
Am eric
A ir</w>
▁succ ession</w>
▁shou lder</w>
▁sear ching</w>
▁prot ected</w>
▁b ank
▁J ourn
s ex</w>
perfor▁m a▁nce</w>
og▁ n
loc ated</w>
j oo</w>
gr a▁de</w>
fu▁ nd</w>
c▁ as
con tract</w>
ch em
b i</w>
b en▁
azak h
at us</w>
air▁ man</w>
L ab▁or</w>
C en▁ter</w>
;▁ m</w>
9 4</w>
▁y e▁ars</w>
▁produc tivity</w>
▁pre ference</w>
▁l ev
▁finis hing</w>
▁exc ited</w>
▁arriv al</w>
▁ar ms</w>
▁appro pri
▁M il
▁Cong ress</w>
w a
s▁ h</w>
sa▁ le</w>
pe▁ ri
or iz
mov ie</w>
ess ly</w>
d▁ ef
c▁ ri
c▁ an▁
con fi▁r
ch ▁ul</w>
b ok
M S</w>
M C</w>
In nov
En▁g lish</w>
Da egu</w>
2 3
▁sh eet</w>
▁pre d
▁manip ulation</w>
▁le g</w>
▁exemp ted</w>
▁d awn</w>
▁con clude</w>
▁autom atic</w>
▁aspec ts</w>
▁F ive</w>
▁4 3</w>
t▁ic l▁e</w>
tion ary</w>
t ou
stud e▁nt</w>
pro bl▁em</w>
p u▁sh</w>
n eeded</w>
lea der</w>
hos ▁p
eas ures</w>
d augh
car ri▁ed</w>
F ebru
E co▁n
E C</w>
C r
0 1</w>
▁vis a</w>
▁trav el
▁publ ication</w>
▁k m</w>
▁in sur
▁flav or</w>
▁f er
▁communic ations</w>
▁Tr aining</w>
▁4 4</w>
y an▁g</w>
ri ble</w>
pr o▁t
on ze</w>
m al
langu a▁ge</w>
int ell
ib l▁e</w>
di▁ d</w>
ch a▁n
cas ▁e</w>
acc ou▁n
Comm itte▁e</w>
▁step ped</w>
▁sec onds</w>
▁r oles</w>
▁n ights</w>
▁mas k</w>
▁langu ages</w>
▁fair ness</w>
▁An yang</w>
▁Ac coun
urr ing</w>
probl ems</w>
os t
fe▁ ll</w>
fail ▁ed</w>
f ol▁
d▁ ro
crea t▁ed</w>
cas ting</w>
b▁e▁ come</w>
ail ing</w>
Pro▁v ince</w>
▁sil ver</w>
▁refug ee</w>
▁n ations</w>
▁im position</w>
▁chec ks</w>
▁absol ute</w>
▁a p▁
▁Manag er</w>
▁D oc
▁A wards</w>
um▁ p</w>
sh▁ ot</w>
p▁ ri▁
pro▁ c
off▁ ic
m ilitary</w>
k ets</w>
h▁erein aft▁er</w>
hy ▁e</w>
el ▁s</w>
ea▁ sy</w>
dev e▁lop
b its</w>
adv ance</w>
L og
L e▁
Ch eo▁ng</w>
8 ▁th</w>
▁w oo</w>
▁see kers</w>
▁sc r
▁restric tion</w>
▁rea pp
▁inev itably</w>
▁Tai wanese</w>
▁Sh ip
▁Offic er</w>
▁Dong daemun</w>
w▁h a</w>
w ay▁s</w>
t▁h y</w>
tic es</w>
ter ies</w>
t om▁
s▁ec on▁d</w>
str eng▁
s urr
rup t</w>
o▁u th</w>
op p
og r▁
insu▁r ance</w>
increa sed</w>
in conven
er▁ at▁ion</w>
ar ts</w>
P o▁l
In c▁heon</w>
H an▁
9 6</w>
▁targ eting</w>
▁recru iting</w>
▁produc ers</w>
▁n am</w>
▁gu ardian</w>
ven ue</w>
u▁n g
um p
sh ed</w>
se▁ veral</w>
p▁ ower</w>
ou t▁h</w>
m en
i▁ c▁h</w>
in ni▁ng</w>
g ames</w>
etw ork</w>
d▁ irec
dr am
def en▁se</w>
d ow▁n</w>
commission ▁ed</w>
ch e▁rs</w>
U V</w>
P re▁sid
P CO</w>
Elec tr▁
A E</w>
▁techn iques</w>
▁t ied</w>
▁represent ing</w>
▁rel atives</w>
▁l ending</w>
▁eng in
▁compl eting</w>
▁boo ths</w>
▁W ol
▁T w
▁Ex pressway</w>
▁B io</w>
▁B each</w>
re▁ v
off i▁c
mea▁ su▁res</w>
i▁ll▁ ion</w>
iv e▁d</w>
ign ity</w>
h o▁s
fri ends</w>
e ur</w>
d ang
ch airper
aw ar
at▁ ure</w>
an ity</w>
P ublic</w>
▁r igh▁t</w>
▁minis ters</w>
▁in land</w>
▁cons isting</w>
▁Ex pec
▁Chung buk</w>
▁ tio▁n</w>
w elfare</w>
s▁ h▁
sum mer</w>
resid▁ ents</w>
reg ul▁
pon se</w>
mit t▁ed</w>
i▁ red</w>
here i▁n
grow i▁ng</w>
g ye</w>
g a</w>
er ge</w>
en c▁es</w>
el i▁ng</w>
ec tion
ea c▁h</w>
c▁ hed</w>
compl et▁ed</w>
at▁ eg
acc ep
6 4</w>
0 7</w>
▁sal t</w>
▁mo tiv
▁immigr ation</w>
▁foot age</w>
▁Pro perty</w>
▁M O
▁7 5</w>
w at▁
stat▁ us</w>
st ern</w>
re fl
li ance</w>
ing re
d .</w>
conc er▁
G e▁n
▁wh▁ ere</w>
▁sp ots</w>
▁r o▁
▁out break</w>
▁l isting</w>
▁gr ateful</w>
▁fres h
▁di esel</w>
▁advant ages</w>
▁R ef
▁Em bassy</w>
▁D MZ</w>
wr itt▁en</w>
v ic▁
s▁ s</w>
spec if▁ic</w>
situ▁ at▁ion</w>
produc ▁ed</w>
poin▁ ts</w>
jo▁ o</w>
inves▁ tment</w>
h a▁nd</w>
h arm
h appy</w>
f ers</w>
distr ib▁
de▁ l
dep art▁
dep artment</w>
constru▁c tion</w>
ab ou▁t</w>
S he</w>
A f▁f
▁writ ers</w>
▁tax ation</w>
▁t aught</w>
▁real istic</w>
▁r ank</w>
▁ob ject</w>
▁inter ven
▁c a▁
▁a▁ fter</w>
▁V al
▁J ames</w>
v al</w>
sec ti▁on</w>
sec retary</w>
retur n▁ed</w>
r ain
pri▁v ate</w>
ol ved</w>
m as
it ory</w>
gr▁ ow
f▁ ourth</w>
fl ix</w>
f ul
emplo▁y ment</w>
d emocr
corpor a▁te</w>
con f▁ir
beco▁m ▁e</w>
aw a▁y</w>
Th ere</w>
P▁ ublic</w>
J ang
10 ▁th</w>
▁y o▁u</w>
▁under way</w>
▁pun ished</w>
▁p ack</w>
▁manufactur er</w>
▁effec tiveness</w>
▁chec k
▁b acter
▁am azing</w>
ye▁ ong</w>
sy n
sta▁ ff</w>
sch ol
rel at▁
rea d▁y</w>
pr ic▁es</w>
pl a▁n</w>
p ea▁ce</w>
o th▁
he▁ at</w>
f▁ir s▁t</w>
er e▁d</w>
b▁ etter</w>
a▁c c
at▁ a</w>
ap▁ er</w>
D o▁ng</w>
. &apos;</w>
▁t e▁r
▁princi ples</w>
▁pl edge</w>
▁integr ation</w>
▁in appropriate</w>
▁hea ded</w>
▁ha bit
▁des irable</w>
▁ch e▁ck</w>
▁ch art</w>
▁abol ition</w>
▁St ock</w>
▁Int egr
▁B ong</w>
▁5 00,000</w>
w arm</w>
t▁h er▁e</w>
tain me▁nt</w>
se i</w>
res u▁lt</w>
pr▁o j▁ect</w>
pr ic▁ed</w>
on als</w>
m▁ark ▁et</w>
ivers a▁ry</w>
it cher</w>
ell ed</w>
e uk
cent e▁r</w>
atten ded</w>
ab ol
S▁ ec
1 .▁
▁resc ued</w>
▁repres ent</w>
▁har mon
▁deteri or
▁categ ories</w>
▁K B</w>
w th</w>
t▁ ro
th i▁nk</w>
t un
s▁ ee▁
s o▁n
p us
o▁ s▁
n▁ ov
m ach
l▁ iving</w>
h▁ y
g row</w>
exhib iti▁on</w>
c▁l os
cont ent</w>
ch e▁d</w>
c enter▁ed</w>
aul o</w>
at al</w>
S ol
B o
▁wor ship</w>
▁tr uly</w>
▁threa tened</w>
▁t ells</w>
▁pre ferred</w>
▁l od
▁fl ood</w>
▁compon ents</w>
▁appl iances</w>
▁air line</w>
▁Dong jak</w>
▁Austral ian</w>
▁10 0th</w>
us▁ ing</w>
p▁ ric
pr▁ od
m un
k es</w>
int▁er est</w>
im ent</w>
g ate</w>
f a
d▁ ev
dam age</w>
co▁m m▁
corp▁or ate</w>
co a▁ch</w>
b▁ eg
bo▁r n</w>
aud▁ it</w>
arant ine</w>
N ovember</w>
I ▁n</w>
8 4</w>
▁w ealth</w>
▁ther apy</w>
▁poll ut
▁in sp
▁fulf ill</w>
▁exc ep
▁ab or
▁Trea sury</w>
▁Tr ad
▁J a</w>
▁Cap ital</w>
us ▁es</w>
pr▁o duc
pos▁ al</w>
o ffer
i u▁m</w>
h uge</w>
g ung</w>
fee▁ l</w>
comm erci
c over
c ars</w>
amm ar</w>
Rep resent
M ot
M oo</w>
K▁or e▁an</w>
C O
&a▁po▁s ;▁s</w>
▁vis ual</w>
▁shou ldn</w>
▁sh ift</w>
▁mist akes</w>
▁m alls</w>
▁l o▁
▁increa singly</w>
▁ess ay</w>
▁emb arr
▁attor ney</w>
▁U.S.- North</w>
▁T ri
▁ME RS</w>
▁K imchi</w>
v▁ er</w>
u▁ ry</w>
ust me▁nt</w>
tur ▁al</w>
thr▁ oug▁h</w>
t y
s essi▁on</w>
r▁ o</w>
pers▁ on
o▁ int</w>
on▁ ment</w>
nec e▁ss
me▁ as
ky u▁ng</w>
j eo▁ng</w>
fi x
eo ju</w>
chil d▁ren</w>
ag a▁inst</w>
O ne</w>
8 7</w>
▁super ior</w>
▁str eam</w>
▁sn acks</w>
▁sm a▁ll</w>
▁sem i</w>
▁r oot</w>
▁pres erve</w>
▁m in</w>
▁encour aging</w>
▁consult ative</w>
▁clos ure</w>
▁clin ical</w>
▁Egyp t</w>
▁B udget</w>
▁1 ,0
z o</w>
str ess▁ed</w>
requ e▁st</w>
pre fer
mis sions</w>
m u</w>
inter est</w>
i an
f▁ fer
f a▁ll</w>
e▁c t▁ion</w>
exp e▁n
en j▁oy</w>
empl o▁
ec tors</w>
each ment</w>
diff▁er en▁t</w>
d ev▁el
conf e▁r
c iti▁
bu▁ k</w>
a▁m p</w>
as t▁ic</w>
an▁ ding</w>
U▁ S</w>
Prov▁ inc▁e</w>
G eum
A▁r t</w>
5 9</w>
▁ter rit
▁t ens</w>
▁surpr ise</w>
▁star tup</w>
▁sp eaker</w>
▁prot ecting</w>
▁is▁ sue</w>
▁injur ies</w>
▁fri endship</w>
▁fl ights</w>
▁depos its</w>
▁d il
▁ch arm</w>
▁ap par
▁S an</w>
▁M os
▁Kinderg arten</w>
▁Ind eed</w>
▁F u
▁F ed</w>
y outh</w>
u is
s▁ enior</w>
stu▁ dy</w>
p ower
olo▁g ical</w>
nor the▁rn</w>
id ers</w>
f▁ ar</w>
establis ▁h
eb ack</w>
dr a▁ma</w>
d u</w>
a▁ ld</w>
adv a▁n
a el</w>
S afe▁ty</w>
8 9</w>
5▁ 0</w>
▁seas ons</w>
▁rec all</w>
▁inv ite</w>
▁hea twave</w>
▁cos t
▁ch ocolate</w>
▁b orrow</w>
▁at tributed</w>
▁a ired</w>
▁U U</w>
▁T our</w>
▁S ung
▁R ail
▁Ear th</w>
▁D omestic</w>
st and</w>
oppos▁ ition</w>
mak ers</w>
in▁ st▁
in ate</w>
fin ite</w>
ex▁ pec
div isi▁on</w>
dem and</w>
b▁ eh
ad ong</w>
S CO</w>
D A</w>
Ar t▁
Administr ati▁ve</w>
▁wh oles
▁supervis or</w>
▁str et
▁sp ot
▁show case</w>
▁res ort</w>
▁out look</w>
▁log ic</w>
▁camp ing</w>
▁b ad
▁appl ies</w>
▁a uction</w>
▁O pen</w>
r▁ ights</w>
r ain</w>
pre v▁
f ound</w>
en ly</w>
dro me</w>
d ai▁ly</w>
b u▁r
al ed</w>
administr▁ ative</w>
O lymp
M a▁
D irector</w>
6 6</w>
20 ▁th</w>
▁taxpay er</w>
▁supervis e</w>
▁sc at
▁prin t</w>
▁pour ed</w>
▁o ri
▁l ighting</w>
▁P ay</w>
▁Med ia</w>
▁Bur ning</w>
w ar▁
throu▁ g▁h</w>
sup po▁r
su ally</w>
s ize</w>
pro perly</w>
pr ac▁
oph is
i▁ ti▁es</w>
investig▁ at▁ion</w>
hy up</w>
hou s▁es</w>
fe▁ es</w>
ever y▁
cer emony</w>
c alled</w>
Or di▁n
M ayor</w>
&a▁p▁os ;m</w>
▁week ly</w>
▁symb ol</w>
▁spec ulation</w>
▁sign ature</w>
▁relation ships</w>
▁lif ted</w>
▁k i</w>
▁heal ing</w>
▁cons ervation</w>
▁Wh ether</w>
▁Afr ican</w>
▁ on</w>
tour i▁sm</w>
st ar</w>
so▁ ci
sm artph
sen ior</w>
r at▁
ph y▁
mi▁n imu▁m</w>
m eal</w>
k ly</w>
im ▁e</w>
ic▁ at▁ion</w>
ic ian</w>
hou ses</w>
eong buk</w>
d i▁c
comm un▁
clu▁ ding</w>
au g▁h
alifor nia</w>
V ill
Se ong</w>
F i▁n
4 00</w>
▁w e
▁sup plement</w>
▁prof itability</w>
▁expres sions</w>
▁ex ists</w>
▁dem ol
▁bur ied</w>
▁bel ongs</w>
▁N ak</w>
ul a▁r</w>
shar ehol
rec ently</w>
pop ular</w>
n om
h▁ ot</w>
fi▁r s▁t</w>
end ants</w>
em an</w>
ear cher</w>
con t▁r
be▁c a▁us▁e</w>
at mos
ac he</w>
S en
S D</w>
6 2</w>
▁k id
▁in fr
▁g am
▁e ▁
▁conven tion</w>
▁Oper ation</w>
▁Gim hae</w>
▁Con ference</w>
▁Argent ina</w>
▁5 0
ye on
t▁ in▁g</w>
tr a▁ck</w>
sec ur
on▁ t</w>
i▁ li
if i▁c
distribu ti▁on</w>
dis ast▁er</w>
bus i▁n
b ook
St ud
Sec reta▁ry</w>
Oct ob▁er</w>
I CT</w>
Eng ine
Dec emb▁er</w>
Am e▁r
6 8</w>
▁system atically</w>
▁n arrow
▁j unior</w>
▁i m▁
▁fro zen</w>
▁dis ▁
▁P rivate</w>
▁N atur
▁Confuc ian</w>
y ang
th rea
rev ealed</w>
pen s▁
j un</w>
inc re▁as
fort ably</w>
e▁m ber</w>
c▁ enter</w>
cos ts</w>
app▁ rov
al▁ y
O c
Aug u▁st</w>
9 ▁th</w>
▁struc tural</w>
▁str aw
▁r itual</w>
▁jum ped</w>
▁influ enced</w>
▁h al
▁f i▁
▁encour aged</w>
▁d ancing</w>
▁clou ds</w>
▁bl ow</w>
▁Y on
un til</w>
ter▁ m</w>
sent enc▁ed</w>
p ub▁lic</w>
ow▁ n
k y▁u</w>
invest ment</w>
ic ked</w>
fam ilies</w>
f inal</w>
comp▁ an▁ies</w>
be t▁wee▁n</w>
Sp▁ec ial</w>
Rus sia</w>
Nov emb▁er</w>
J ud
20 20</w>
▁uni forms</w>
▁pr▁ ice</w>
▁explos ion</w>
▁ass essed</w>
▁Yeong deungpo</w>
▁W ang</w>
▁Mex ican</w>
▁M el
▁3 .
▁2 50</w>
▁& amp;</w>
y gen</w>
s▁ ec▁
rel ations</w>
rank ▁ed</w>
pro▁ du▁c
ou ses</w>
m iddle</w>
l▁ and</w>
l iter
k ind</w>
ir eless</w>
ill io▁n</w>
ic on</w>
h eon</w>
fu▁r ther</w>
ev i▁d
d▁ ec▁
div ision</w>
discu▁ ss</w>
c ore</w>
ar ms</w>
Hw as
▁won derful</w>
▁un ified</w>
▁t onight</w>
▁r ank
▁pat ri
▁att acks</w>
▁T ottenham</w>
▁Pl aza</w>
▁Inst agram</w>
▁H ope</w>
▁2 .5</w>
ti▁ c</w>
s pr
refe▁r r▁ed</w>
ph o▁ne</w>
o▁r ry</w>
og n▁
natur ▁al</w>
my u▁ng</w>
mo▁n th</w>
i▁t ary</w>
in▁ ter
h▁el p</w>
e▁ p
e▁ o</w>
es th
dis abl▁ed</w>
coun sel
chang ▁ed</w>
b or▁
ad vis
accus ▁ed</w>
W ar</w>
Janu a▁ry</w>
Dis trict</w>
7 7</w>
▁wat ers</w>
▁t a▁
▁pr ayer</w>
▁pic ked</w>
▁p itcher</w>
▁p ine</w>
▁miss ile</w>
▁inform atization</w>
▁hear ts</w>
▁conver gence</w>
▁contro lled</w>
▁bel t</w>
v ulner
ta▁ in
probl e▁ms</w>
p ical</w>
inter▁ es▁ted</w>
exper ience</w>
exec u▁
emb le</w>
d a▁m
burs ement</w>
at▁ is</w>
O T
Comm it▁tee</w>
C E▁
&apo▁s ;t</w>
# 9
▁str ea
▁pi ano</w>
▁phr ase</w>
▁k ind
▁fl at</w>
▁fir ed</w>
▁exam s</w>
▁disapp ear</w>
▁def ined</w>
▁d ormit
▁bull etin</w>
▁M a
▁Chun cheon</w>
▁B esides</w>
▁200 4</w>
ur ban</w>
tax i</w>
sy▁st e▁m</w>
sti ce</w>
reg istr
receiv i▁ng</w>
p▁ re▁
pr▁o ject</w>
pre▁ ss
po▁p ular</w>
op p▁os
me▁ etin▁g</w>
indus tr▁y</w>
g il</w>
e▁c tive</w>
e▁ sti
enti onal</w>
emer▁ gency</w>
ay o▁r</w>
ar ▁s</w>
al ition</w>
acc or▁
N o</w>
Gang w▁on</w>
Ag en▁cy</w>
▁r ot
▁mathem atics</w>
▁h a▁ve</w>
▁f em
▁every where</w>
▁driv en</w>
▁comm and</w>
▁c au
▁Th us</w>
▁Expec tations</w>
un gh
ti f▁
te▁ er</w>
so ft</w>
sing▁ le</w>
pur su▁
ot▁ ion</w>
o ther
m▁ anag
il▁ ar</w>
e▁ au</w>
ex tr
ea uty</w>
coo p▁er
compl eted</w>
chi▁l dren</w>
a▁n ds</w>
a▁l ue</w>
ar▁ ly</w>
appro pri
N o▁
E U</w>
5 4</w>
▁w ood</w>
▁l abor
▁des c
▁comm ander</w>
▁Y eong</w>
▁Inter ior</w>
▁Fin ally</w>
▁B uk
▁A round</w>
sup porti▁ng</w>
pl eas
or al</w>
l▁ ea▁
l i▁n
ky un▁g</w>
i▁ ke</w>
in ent</w>
hw amun</w>
g a▁n
g ap</w>
es tic
en tic
e iling</w>
c i▁ng</w>
c ivil</w>
an ting</w>
ai▁ led</w>
H os
G o▁ver
▁toil et</w>
▁scienti fic</w>
▁fin ancing</w>
▁S sang
▁Canad ian</w>
ul s
tr aining</w>
t led</w>
t elecomm
sum mi▁t</w>
rep▁ or▁ted</w>
produc tion</w>
plac ▁e</w>
o▁ ci
in c▁l
impo▁r t▁ant</w>
hea▁ ds</w>
equ ▁
cor rec
ab ies</w>
G e
8 6</w>
6 ▁th</w>
▁wor n</w>
▁t ower</w>
▁sw ing</w>
▁de ployed</w>
▁class room</w>
▁be t▁ween</w>
▁additi onally</w>
▁H am
▁B ong
y▁ st
ur▁ r
spe▁ ci
sec t▁or</w>
s ale</w>
re vi▁
re in
oc▁ ks</w>
in ema</w>
ic ro</w>
ex hib▁
equ ality</w>
el ig
ce▁r tain</w>
ati on▁
ati n</w>
ar▁t m▁ent</w>
Japa▁n ese</w>
A sian</w>
▁uplo aded</w>
▁symb ol
▁surv ive</w>
▁str ic
▁mus cles</w>
▁con stitutional</w>
▁b ound
▁after math</w>
▁S iheung</w>
▁Cheong do</w>
▁Ben to</w>
▁Bas ic</w>
un iversi▁ty</w>
u e▁s</w>
re ported</w>
r is▁
p port</w>
ool ▁s</w>
ol▁ ved</w>
hy th
h all</w>
ell ence</w>
d▁uc t</w>
d▁ is▁
cili ation</w>
H▁ an
E cono▁my</w>
4 t▁h</w>
▁sew age</w>
▁ref unded</w>
▁recru ited</w>
▁inquir y</w>
▁i sol
▁h urry</w>
▁coun sel</w>
▁cl ar
▁ap ology</w>
▁Bu ilding</w>
w oman</w>
su ff▁
re vi▁ew</w>
priv ileg
o▁ cr
ook ie</w>
ok en</w>
l▁ o
lim ited</w>
id eo</w>
hou s▁
g▁ il</w>
facil itie▁s</w>
esti m
educ a▁tion</w>
b▁ usiness</w>
W o▁r
Serv ice</w>
P C</w>
K ing</w>
For ei▁gn</w>
7 2</w>
6 7</w>
▁wal ked</w>
▁s um</w>
▁rec overed</w>
▁prin ting</w>
▁l ie</w>
▁l ap
▁judg ing</w>
▁em issions</w>
▁dep ression</w>
▁conduc ts</w>
▁Sou thern</w>
▁Per haps</w>
▁D a</w>
▁B al
y▁ et</w>
ud g▁et</w>
oper a▁te</w>
n or▁
mut at▁is</w>
mem▁ bers</w>
i ou▁s</w>
e▁c ts</w>
eti es</w>
c▁h ange</w>
competi tiv
cl▁ ud
ca▁l led</w>
busin esses</w>
K ong</w>
F und</w>
▁veter ans</w>
▁transpar ent</w>
▁rob ots</w>
▁pursu ed</w>
▁o cean</w>
▁dis tur
▁descri bed</w>
▁Pal ace</w>
vers eas</w>
v in▁g</w>
ul▁ y</w>
uc ky</w>
t een
sp ir
plac ▁es</w>
leg isl
g rou▁p</w>
ev ision</w>
et w▁een</w>
est▁ ival</w>
ep▁ t</w>
d eal</w>
condu▁c t</w>
b ac▁k</w>
ap o▁s▁
ac ent</w>
R u▁s
P ea▁ce</w>
O r▁
N▁ am</w>
J un</w>
G rou▁p</w>
E ur▁
E a▁st</w>
▁th rew</w>
▁th inks</w>
▁restor ed</w>
▁green house</w>
▁cover age</w>
▁bl oss
▁A rea</w>
wh▁ ile</w>
v▁ ir
t▁er m</w>
tec h▁n
ri ver</w>
p▁er▁ son</w>
p▁ ing</w>
pr▁o f
l▁ ong</w>
ind u▁stry</w>
if iers</w>
ex▁ per
ex p▁er
es h</w>
br a▁nd</w>
bel iev
b i▁g
a▁m es</w>
ativ e▁ly</w>
at or
O l
O E
F am
Dis tric▁t</w>
B as
20▁1 6</w>
▁public ity</w>
▁n omin
▁instr uments</w>
▁h obby</w>
▁f a▁
▁dr one</w>
▁M yeong
work er▁s</w>
uti n</w>
us ter</w>
tr▁ ip</w>
th o▁
t less</w>
special iz▁ed</w>
pos sibili▁ty</w>
op ment</w>
n e▁r</w>
m▁ ust</w>
manag ▁er</w>
i▁n ter
iz er</w>
h im
ff ers</w>
den ed</w>
comp eti▁
cl▁ ub</w>
af▁ ety</w>
Sm a▁ll</w>
Lib▁ erty</w>
Jap a▁n</w>
H u
Elec tr
▁w ishes</w>
▁sn ow
▁open s</w>
▁mot or
▁mois ture</w>
▁in noc
▁esc al
▁dis trib
▁def eat</w>
▁c ar▁
▁ag es</w>
▁ag ents</w>
▁Sun cheon</w>
▁K n
▁For tress</w>
▁Eas tern</w>
▁Con test</w>
▁C E
wor l▁d</w>
ta▁ ek</w>
si▁ d
sc en
r▁ul ing</w>
pr i▁se</w>
ou ble</w>
or ities</w>
n▁ ational</w>
il▁ d</w>
h eat</w>
gre ement</w>
foll ow▁ed</w>
fac tory</w>
ew ay</w>
ec os
dire▁c t▁or</w>
di ed</w>
comm erc
c e▁nt</w>
bur d▁en</w>
b i▁ll</w>
Ordin▁ an▁ce</w>
D▁ ec
B▁ usan</w>
6 1</w>
▁wit ness</w>
▁w ash</w>
▁th reat</w>
▁re verse</w>
▁promp tly</w>
▁pat rol</w>
▁meas urement</w>
▁h itting</w>
▁democr atic</w>
▁defin itely</w>
▁cont ext</w>
▁cap tured</w>
▁V eter
▁St ar</w>
▁F ootball</w>
▁Comm unications</w>
t▁im ▁e</w>
st ay</w>
sid ▁
si t▁es</w>
sh▁ op</w>
po▁ or</w>
o▁n g▁
out si▁de</w>
or ds</w>
ok cho</w>
h ans
ex ist</w>
di▁ rec
d an</w>
d am</w>
ann a</w>
ac k▁
ab inet</w>
Se▁ ou▁l</w>
Pen insula</w>
M ex
00 ,0▁00</w>
&ap▁os;▁ ve</w>
▁up date</w>
▁text books</w>
▁s ing</w>
▁progres sive</w>
▁mach inery</w>
▁inf ection</w>
▁for ming</w>
▁direc tions</w>
▁commerci alization</w>
▁&▁ a▁mp;</w>
un▁ it</w>
t om</w>
sm oki▁ng</w>
r▁ea s▁on</w>
r▁ ow</w>
m ix
h▁ ome</w>
f▁ ood</w>
ess e▁d</w>
bus y</w>
ak er</w>
Ph il
K won</w>
En tr
Comm issi
Com pl▁ex</w>
A R
1▁ 1</w>
▁vir us</w>
▁ul tra</w>
▁terr or
▁fail ing</w>
▁design er</w>
▁bott le</w>
▁R eal
▁Nam yangju</w>
▁Coun cilor</w>
up yeong</w>
tak en</w>
sh ot</w>
produ▁c tion</w>
p ic▁
op pos
oo th
negoti ations</w>
n ur
hom ▁e</w>
g am▁e</w>
d ated</w>
conditi o▁ns</w>
at ever</w>
D s</w>
▁z ero</w>
▁wh er▁e</w>
▁viol ent</w>
▁t o▁t
▁rem emb
▁recycl ing</w>
▁p ure</w>
▁op tions</w>
▁initi ally</w>
▁exc iting</w>
▁che ese</w>
▁aut onomy</w>
▁ar med</w>
▁U sually</w>
▁Republ ican</w>
▁N ob
▁Hu h</w>
▁H ae
techn▁ ology</w>
stu▁d en▁ts</w>
str▁ y</w>
sch oo▁l</w>
s en▁
r▁eal l▁y</w>
per or</w>
pen ses</w>
o▁ per
omer ates</w>
ogr am</w>
ma▁ k▁e</w>
in y</w>
est yle</w>
enc ement</w>
empl ary</w>
cust o▁m
co▁ l
consid er▁ed</w>
brea k
ati tude</w>
arb ucks</w>
ar io</w>
P O</w>
Jos e▁on</w>
J u</w>
I FA</w>
▁wid th</w>
▁tax is</w>
▁sec tions</w>
▁r ough</w>
▁p r▁es
▁high way</w>
▁facilit ate</w>
▁ec ological</w>
▁accur ately</w>
▁K aesong</w>
▁G all
▁200 2</w>
v ily</w>
tr e▁ss</w>
ph y</w>
pers on▁al</w>
h ospital</w>
h a▁ll</w>
e▁l t</w>
cont e▁nt</w>
c au▁se</w>
ati▁ c</w>
at te▁nd</w>
▁reb ound</w>
▁philos ophy</w>
▁journ alists</w>
▁e at
▁contr ast</w>
▁c alligrap
▁b e▁c
▁a h</w>
▁O ut
z er
y▁ eong</w>
tro versy</w>
s ig▁n
s exual</w>
p▁l ay</w>
pr▁ event</w>
prescri b▁ed</w>
pe▁r c▁ent</w>
o▁ k
m ur
j ourn
i▁m p▁
i▁ e</w>
in▁ clud
if ted</w>
i o▁r</w>
gre▁ en</w>
fir m</w>
f elt</w>
est a▁
dom in
dis trict</w>
denuclear izati▁on</w>
d able</w>
c as▁
b etter</w>
a▁t eg
as ▁h
L ove</w>
K w▁on</w>
J a▁n
Dec r▁ee</w>
C▁ omm
▁t ool</w>
▁retur ns</w>
▁relig ion</w>
▁objec tive</w>
▁o uter</w>
▁manufactur ed</w>
▁k ill</w>
▁hy un</w>
▁gu ards</w>
▁faith fully</w>
▁entreprene urs</w>
▁commemor ate</w>
▁comm encement</w>
▁Se odaemun</w>
▁Elec tric</w>
▁Cath olic</w>
ul ent</w>
r u▁n</w>
prosec ution</w>
pr is▁on</w>
oper▁ ating</w>
nu▁m b▁er</w>
gr▁ ow</w>
g ress</w>
ew o▁rk</w>
d ire▁ct</w>
as m</w>
Eng li▁sh</w>
A M</w>
▁refr iger
▁p izza</w>
▁j u</w>
▁for ests</w>
▁do ors</w>
▁dec ades</w>
▁cur iosity</w>
▁concentr ate</w>
▁child hood</w>
▁attemp ts</w>
▁St atistics</w>
▁Ch i▁na</w>
ung er</w>
th ink</w>
s▁ id
sub m▁
st ar▁
sk in</w>
se▁ t</w>
se o▁ng</w>
rec▁ ently</w>
n▁ ext</w>
m il▁lion</w>
i▁ ev
ho▁ od</w>
fur th▁er</w>
exp▁ ec▁te▁d</w>
d eep</w>
a▁t t▁
C iv▁il</w>
,▁ 000</w>
&a p▁o▁s
▁y ear▁s</w>
▁sh ower</w>
▁publ ishing</w>
▁men us</w>
▁gradu ated</w>
▁foun der</w>
▁del inqu
▁comb ines</w>
▁co astal</w>
▁cl ause</w>
▁T ong
▁S ar
▁An n
▁4 6</w>
y▁ ear▁s</w>
u▁ me</w>
un c
tr end</w>
ro a▁d</w>
res▁ earch</w>
o▁r ed</w>
own e▁rs</w>
ord i▁n
m eter</w>
ign s</w>
e▁ up</w>
e▁ lo▁
dus try</w>
crea ti▁on</w>
cl ean
ar riv
Y eon</w>
P u▁
P G</w>
M a▁y</w>
Gw a▁ng
D▁ ay</w>
Coun ci▁l</w>
2▁ 00
▁under go</w>
▁rem ark
▁oblig ation</w>
▁hon est</w>
▁f ant
▁en able</w>
▁concer ts</w>
▁architec ture</w>
▁al liance</w>
▁Offic ial</w>
▁L ifelong</w>
▁Ital ian</w>
▁Ch ild</w>
▁B ro
w ea▁
us hing</w>
t an</w>
streng th▁en</w>
of▁f ic
mov ▁ed</w>
i▁s s▁
g▁ ame</w>
co al</w>
at ar</w>
an▁ ted</w>
al▁ led</w>
Y ou</w>
W e▁l
U r
J▁ in</w>
Hy▁ undai</w>
C en▁
A gency</w>
7 6</w>
▁trav eled</w>
▁th e▁r▁e</w>
▁t elling</w>
▁st amp</w>
▁sc ri
▁rem ote</w>
▁r arely</w>
▁observ ation</w>
▁l ying</w>
▁jud iciary</w>
▁har sh</w>
▁frequ ency</w>
▁di ab
▁crow d</w>
▁c ats</w>
▁aud itor</w>
▁S t▁
▁S k
▁Mok po</w>
▁D okdo</w>
under▁st a▁nd</w>
tr▁ ib
st an▁d
reason able</w>
re form</w>
or g▁an
on s▁
of t▁en</w>
l ow
it o</w>
in i</w>
imb ap</w>
id en▁ce</w>
h w▁a</w>
form ance</w>
establis hed</w>
erm al</w>
ec tly</w>
br an▁ch</w>
be▁ for▁e</w>
arres t▁ed</w>
adem▁ ic</w>
Unive▁r sity</w>
R▁ oh</w>
I ▁f</w>
Gyeongsang nam</w>
Don a▁ld</w>
▁s u</w>
▁reserv ed</w>
▁prov isional</w>
▁por tra
▁po is
▁per ▁
▁obser ve</w>
▁f ly</w>
▁N ations</w>
t▁ aking</w>
tu al▁ly</w>
s▁ ure</w>
n is</w>
m▁ is
iti s</w>
e▁ ach</w>
educ ation▁al</w>
cos ▁ts</w>
ar i▁es</w>
K R▁W</w>
▁tr ag
▁helicop ter</w>
▁experim ent</w>
▁class ical</w>
▁al g
▁P angyo</w>
▁H igh
▁C alifornia</w>
wit h▁
u▁n d
un ive▁r
ti ll</w>
st an
scor ▁ed</w>
rea l▁
ra ised</w>
p eti
o o▁t
min ut▁es</w>
cons▁ um
con ver
ce▁n ter</w>
b▁ ette▁r</w>
at eral</w>
ann iversa▁ry</w>
al i▁ze</w>
T BC</w>
L an▁d</w>
L abor</w>
Indus ▁
I l</w>
Gyeon▁g gi</w>
D▁ a
18 ▁th</w>
▁separ ation</w>
▁scre ened</w>
▁rel ieve</w>
▁ref res
▁j in</w>
▁be in▁g</w>
▁b e▁g
▁Techn o</w>
▁M unicipal</w>
▁G apyeong</w>
▁Ad v
▁7 00</w>
y cles</w>
w ill
un iver
to▁ wn</w>
r▁ eg▁
lo an</w>
l ack</w>
i▁r l</w>
is c
im▁ pro▁ve</w>
herein a▁fter</w>
hel▁ p</w>
f a▁r</w>
f an</w>
est ab▁
er a▁l</w>
eb a▁ll</w>
eal and</w>
con trib
bi▁ g</w>
ar▁ ks</w>
am ics</w>
ab road</w>
P A</w>
&▁qu ▁o▁t;</w>
▁w eigh
▁t ox
▁t igh
▁syn ergy</w>
▁pr▁ o
▁min i</w>
▁draw s</w>
▁div or
▁des truction</w>
▁c r▁
▁D al
wh▁ y</w>
sub scri
sh owed</w>
p▁os e</w>
pre p▁ar
n ity</w>
law m▁ak
it▁ ted</w>
infl▁ u
ili ans</w>
d▁ irect</w>
di plom
c▁ s</w>
cur▁ r
b▁e e▁n</w>
brief i▁ng</w>
ann o▁un▁
and o</w>
G o▁
▁wh▁ en</w>
▁ter minal</w>
▁t ies</w>
▁s▁ ince</w>
▁surv eys</w>
▁sincer ely</w>
▁simultan eously</w>
▁re plied</w>
▁occup ied</w>
▁foc uses</w>
▁fi x</w>
▁fe ed
▁cri tics</w>
▁conven ed</w>
▁confir ming</w>
▁acknowl edged</w>
vi ew▁
u▁n ique</w>
u ary</w>
tr a▁ns
s eon</w>
rec o▁rd</w>
ra▁ in</w>
prov inc▁e</w>
prev e▁n
o▁ ms</w>
on line</w>
man a▁g
ic▁ ies</w>
ec tious</w>
del eg
coll e▁ge</w>
b▁ ak</w>
atis tical</w>
ann u▁al</w>
T a▁
S a
Rus s▁ia</w>
M E</w>
B y
▁tend ency</w>
▁special izing</w>
▁sav ing</w>
▁mer it</w>
▁investig ative</w>
▁inc idents</w>
▁h ea▁d</w>
▁challeng es</w>
▁bl ocking</w>
▁bel ief</w>
▁bas ement</w>
▁Gwang hwamun</w>
▁D obong</w>
▁8 00</w>
t our</w>
t as
sem iconduc
s ign</w>
r▁es▁ ult</w>
ol ine</w>
l oo▁k</w>
l ation</w>
k▁ yu</w>
i▁c al</w>
includ ▁ed</w>
im pr▁ov
fin an▁cial</w>
d▁em a▁nd</w>
b▁ el
bi▁ll ion</w>
8 2</w>
▁spl it</w>
▁r ear</w>
▁pro p
▁med ic
▁lec tur
▁doub t</w>
▁des ired</w>
▁anticip ated</w>
▁US A</w>
▁Re form</w>
▁Nav y</w>
▁M icro
▁M e</w>
▁F uture</w>
▁200 3</w>
z y</w>
st▁ ep</w>
sem icon
pl a▁y</w>
perfor▁m ance</w>
n ae</w>
i al▁ly</w>
fras tru▁c
enti▁ re</w>
d▁ es▁
c▁ alled</w>
crea▁ t▁e</w>
ci ences</w>
am ▁s</w>
Y ork</w>
S▁ chool</w>
L ocal</w>
Co▁un cil</w>
▁t all</w>
▁st eering</w>
▁pri zes</w>
▁organiz ing</w>
▁mus icians</w>
▁id e
▁hot els</w>
▁ex posure</w>
▁d ess
▁cover ing</w>
▁bas ketball</w>
▁b att
▁ar ise</w>
▁With out</w>
▁G oseong</w>
▁G ender</w>
ur c▁h</w>
uni q▁ue</w>
ular ities</w>
trea tment</w>
sur es</w>
st ro
si onal</w>
relation sh▁ip</w>
pas ▁t</w>
p e▁r</w>
le▁ m</w>
l im▁
l im</w>
jo▁ b</w>
igh t▁s</w>
g▁r am</w>
er cial</w>
en▁t ary</w>
empl▁ oy
c▁h o
conv e▁n
consecu ti▁ve</w>
b ill</w>
a▁n ks</w>
a▁ ud
T ec
M r.</w>
H e▁al
D I</w>
▁tr acking</w>
▁st uck</w>
▁reven ues</w>
▁requir ing</w>
▁men tion</w>
▁l ift</w>
▁en ding</w>
▁M un</w>
▁M ac
▁Lt d</w>
▁Gun san</w>
▁Fr anc
w▁or ld</w>
wr ong</w>
u▁ sing</w>
t▁ alk</w>
t▁ ain</w>
trav▁ el</w>
s▁ing le</w>
st▁ ory</w>
sever ▁al</w>
ser i▁es</w>
s ym
res earch</w>
p a▁re</w>
ligh ted</w>
in▁ s
im age</w>
h us
es ti▁ng</w>
er▁ n</w>
e u▁p</w>
au▁ gh
agre▁ ed</w>
ag r▁
S u</w>
C er
9 1</w>
3▁ 00</w>
1 .5</w>
▁rep utation</w>
▁rem od
▁qu ota</w>
▁occup ation</w>
▁o the▁r</w>
▁newsp apers</w>
▁k n▁
▁exam ined</w>
▁ch ampionship</w>
▁c eiling</w>
▁borrow ed</w>
▁arr ang
▁P aulo</w>
▁E X
▁Comm unication</w>
▁Ac tually</w>
yo▁ nd</w>
t▁ uring</w>
sk ills</w>
ser▁ ve</w>
s us▁
s qu
o▁ r▁
opin io▁ns</w>
jur is
j on▁g</w>
incr▁ eased</w>
in e▁s</w>
for▁ ce</w>
e▁st ate</w>
ex po▁rt</w>
es h
ec ti▁ng</w>
de▁ al</w>
c▁ ould</w>
ch ase</w>
azakh stan</w>
ass aul
ar d▁s</w>
announ ceme▁nt</w>
ad i▁um</w>
S in
Prov in▁cial</w>
En vir
Dem ocr▁atic</w>
1▁ 5</w>
▁there for</w>
▁th r▁ough</w>
▁st ation
▁rel ics</w>
▁reg ret
▁photograp hs</w>
▁p etro
▁mus h
▁mass age</w>
▁l ies</w>
▁l aid</w>
▁eas tern</w>
▁contribu tions</w>
▁consist ently</w>
▁c ope</w>
▁a t▁
▁H aving</w>
y ro
w▁ n</w>
v▁ i
v ation</w>
u ating</w>
tur n▁ed</w>
s ymp
p▁er▁ iod</w>
m▁ ar
j ▁un</w>
emb▁ ers</w>
ee▁ ded</w>
ea tly</w>
c▁om ing</w>
buil t</w>
am▁ a</w>
am ination</w>
am ation</w>
P eople</w>
9 3</w>
▁v alley</w>
▁sl owing</w>
▁s and</w>
▁per petr
▁govern ance</w>
▁func tional</w>
▁entr us
▁comp an
▁T ime</w>
▁St arbucks</w>
▁Memor ial</w>
▁Chungch eongnam</w>
ult▁ ure</w>
s▁ el
st or▁es</w>
st one</w>
s ud
re▁ce ive</w>
rai▁ se</w>
prof ess▁
pro c▁
o▁ il</w>
op▁ le</w>
m▁ y
ir▁ d</w>
im ate</w>
facil i▁ties</w>
e▁n ough</w>
duc ted</w>
a▁n c▁e</w>
a▁ w</w>
a▁ pe</w>
2▁ 00</w>
&apo▁s ;
▁tran sition</w>
▁thea ters</w>
▁sti mul
▁postpon ed</w>
▁p ays</w>
▁mission ary</w>
▁in ser
▁fish eries</w>
▁dom inated</w>
▁dis ability</w>
▁conc ep
▁abnorm al</w>
▁T ong</w>
▁Sy dney</w>
▁Nex en</w>
▁G eo
ul t▁s</w>
t▁h e▁re</w>
to▁ ur</w>
sur g
s ely</w>
pay ment</w>
ol▁ og
g am▁es</w>
for eign</w>
ex clud
em et
ed u▁c
cou▁ ldn</w>
bus▁in es▁s</w>
a▁ir man</w>
at o▁r</w>
as er</w>
air y</w>
ac▁ ks</w>
T E</w>
Jap anese</w>
C s</w>
A R</w>
▁u tion</w>
▁tou ching</w>
▁s y
▁reti red</w>
▁ret ail
▁repres ents</w>
▁renew ed</w>
▁qu oted</w>
▁predic ts</w>
▁over time</w>
▁ju ice</w>
▁dro ve</w>
▁dis tor
▁def ects</w>
▁ar t
▁agre ements</w>
▁Po cheon</w>
▁All ow
u▁ r</w>
re▁su▁l ts</w>
pr a▁c
no▁ un
emb ly
electr▁ ic</w>
d▁ on</w>
co▁mp an▁y</w>
al y▁
M▁in▁ istry</w>
F estiv▁al</w>
Comm i▁t
Ch e▁
▁w ild
▁s ight</w>
▁s ang</w>
▁peti tion
▁ob taining</w>
▁l uck</w>
▁f ast
▁exc eption</w>
▁comp eting</w>
▁advant ageous</w>
▁Isra el</w>
▁I I</w>
▁Ch amber</w>
▁C os
▁C amp</w>
t▁ al</w>
s elli▁ng</w>
pr▁ is
prof ess
perform anc▁es</w>
involv ▁ed</w>
im p▁rov
g roups</w>
f ees</w>
ellig en▁ce</w>
dis mis
clu▁d in▁g</w>
c ow</w>
c ell</w>
a▁c tual</w>
any▁ thing</w>
am ount</w>
ai▁n ed</w>
ail ▁ed</w>
acr o▁ss</w>
IC E</w>
Dis t▁rict</w>
7 9</w>
11▁ th</w>
▁wor ldwide</w>
▁view ing</w>
▁un stable</w>
▁tex ture</w>
▁techn ique</w>
▁qual ifications</w>
▁prec ed
▁pow der</w>
▁gl ob
▁fl ying</w>
▁dismis s</w>
▁bec ▁
▁acqu ire</w>
▁V R</w>
u▁r al</w>
un i▁on</w>
si▁ ons</w>
sh o▁ws</w>
sa▁ fe</w>
s en</w>
respon sib▁
re pr▁es
play ers</w>
pl ane</w>
impo▁r t
gi▁ v▁e</w>
f oot
f ath▁er</w>
e▁ pt</w>
ey▁ es</w>
es it
ecess or</w>
difficul ti▁es</w>
bas is</w>
b in</w>
av ail
SE AN</w>
S ang
Feder ati▁on</w>
Febru a▁ry</w>
▁wind ows</w>
▁rank ings</w>
▁new sletter</w>
▁necess ity</w>
▁impres sed</w>
▁guarant ees</w>
▁g olden</w>
▁deliber ated</w>
▁def endant</w>
▁correc tive</w>
▁comp uters</w>
▁believ ing</w>
▁abol ished</w>
▁P a▁rty</w>
▁M u
▁M ark
▁G ame</w>
wit▁h out</w>
vol u▁n
techn olog
t een</w>
st o▁ck</w>
so▁m e
si bl▁e</w>
shi▁ ps</w>
sch ools</w>
ori▁g inal</w>
organiz ations</w>
m▁ ajor</w>
mos ▁t</w>
it a</w>
import ant</w>
ft op</w>
f al
e▁ar ly</w>
exam inati▁on</w>
employ ed</w>
ea▁ l</w>
conditi ons</w>
a▁ king</w>
af ts</w>
Wh en</w>
Tour i▁sm</w>
K i▁ng</w>
C ar
7 8</w>
&ap▁os; r▁e</w>
▁t ea▁m</w>
▁su its</w>
▁shor ter</w>
▁sear ched</w>
▁qu it</w>
▁plat forms</w>
▁p eaceful</w>
▁manag es</w>
▁l yrics</w>
▁displ ays</w>
▁S and
▁Cooper ation</w>
w ro▁
w ait</w>
v o▁
un k
ul▁ ty</w>
s om▁
re▁ f
resp o▁n
pr▁o b▁lem</w>
particip ate</w>
p a▁y</w>
opport uni▁ty</w>
is▁ su
ig ation</w>
id ate</w>
hist or
h ap
est a▁b
es ity</w>
en ti▁ng</w>
e try</w>
c▁om p▁
com ed</w>
cl ass
ce▁ pt</w>
3 .
▁voc ational</w>
▁p ep
▁def eated</w>
▁cy ber</w>
▁calcul ating</w>
▁as leep</w>
▁Tor onto</w>
▁Braz ilian</w>
wi▁th o▁ut</w>
t▁ est</w>
str▁ uc
sa▁f ety</w>
prepar ▁ed</w>
prac tic
mak ▁es</w>
gov▁ern ment</w>
gen c▁y</w>
e▁n t▁s</w>
ev ▁e</w>
el der▁ly</w>
e q▁u
cre d▁it</w>
contin ued</w>
br and</w>
a▁nn ual</w>
Pr▁ o
J▁ap an</w>
Dec ember</w>
▁vol ati
▁prefer entially</w>
▁i ll</w>
▁gr ammar</w>
▁er rors</w>
▁d oll</w>
▁conven e</w>
▁any time</w>
▁a fte▁r</w>
▁S ales</w>
▁Panmunj om</w>
▁G olden</w>
ul g
tur ned</w>
tr i▁ed</w>
there of</w>
s▁ ea</w>
po▁l ice</w>
on e▁s</w>
offic ▁er</w>
mee▁ ting</w>
it e▁ms</w>
high▁ ly</w>
fav or
environ ment▁al</w>
e els</w>
an t▁ed</w>
an d▁s</w>
acc ide▁nt</w>
D e▁c
A m▁
7 3</w>
▁wholes ale</w>
▁st agn
▁sk ill</w>
▁rea ders</w>
▁k ey
▁indic ating</w>
▁fl ows</w>
▁excav ation</w>
▁be ings</w>
▁ad jus
▁Exper ience</w>
▁Baek je</w>
wh▁ ether</w>
un it</w>
um in
sec u▁re</w>
r▁e port</w>
r u▁l
p▁ il</w>
p ow
orig in▁al</w>
m▁ ove</w>
me▁n ▁t</w>
ind▁ us▁
inc▁rea se</w>
id em
ick▁ ly</w>
h is▁
f▁ i
d anc▁e</w>
al ong</w>
E stablish
▁sched ules</w>
▁s eller</w>
▁pregn ancy</w>
▁off▁ icial</w>
▁notic eable</w>
▁lif ting</w>
▁l augh
▁hea vily</w>
▁ch ap
▁c uts</w>
▁P utin</w>
▁2 2
t aking</w>
su▁ b▁
sc reen</w>
pur pose</w>
over ty</w>
our▁ ce</w>
or de▁r</w>
oc ate</w>
loc a▁l</w>
ind▁us try</w>
in st▁
in ity</w>
f oot</w>
ev ents</w>
den uclearization</w>
canc▁ er</w>
a▁t in▁g</w>
ag ainst</w>
abil iti▁es</w>
Y o▁
Div isi▁on</w>
Bus a▁n</w>
&qu o▁t▁;</w>
▁wor ries</w>
▁sh ut</w>
▁reg eneration</w>
▁quar ter
▁pack aging</w>
▁neg lected</w>
▁lic en
▁l iver</w>
▁impris onment</w>
▁gl ad</w>
▁flo ating</w>
▁enthusi astic</w>
▁eat en</w>
▁do zens</w>
▁disc overy</w>
▁d yn
▁ap art</w>
▁Vol unt
▁Se▁ oul</w>
▁M ob
▁4 7</w>
▁&ap▁os ▁
web site</w>
vis ion</w>
us s</w>
us e▁rs</w>
s▁ ame</w>
r▁e p▁ort</w>
reduc ti▁on</w>
pro▁duc t▁s</w>
ph ot▁
p t▁ion</w>
o▁ d
ov▁ er▁n
or a</w>
in▁ at▁ion</w>
hi▁gh est</w>
fu▁ ture</w>
equip me▁nt</w>
cer ta▁in</w>
c ue</w>
c au▁
ana▁l y
ab l▁
J ▁ung</w>
H wang</w>
F ebruary</w>
A ll
6 9</w>
&▁qu ▁ot▁;</w>
▁w o▁n</w>
▁th row</w>
▁s eventh</w>
▁prot ests</w>
▁negoti ating</w>
▁inf ected</w>
▁depos ited</w>
▁d ignity</w>
▁adop tion</w>
▁accept ance</w>
▁G ong
▁20 21</w>
ur r▁ed</w>
un ist</w>
tig ious</w>
th e▁n</w>
s▁ti tu
ss▁ ion</w>
soci e▁ty</w>
n ee▁ds</w>
mod el</w>
l an▁
j e
i▁s ter</w>
iv▁ id
it ement</w>
ec▁ k</w>
des p
c an▁
b a</w>
a▁ ti
adem ic</w>
M▁ in</w>
E ast</w>
▁serv es</w>
▁pain ted</w>
▁hy giene</w>
▁fea tured</w>
▁f eed</w>
▁ev ▁
▁en ro
▁d ad</w>
▁cro ps</w>
▁coun cil
▁compar ison</w>
▁b ound</w>
▁W e
▁B undang</w>
wee▁ k</w>
tr▁ ol</w>
s▁ ex</w>
n t</w>
n ment</w>
ma▁ king</w>
lo▁ w</w>
l eme▁nt</w>
inst all▁ed</w>
ill i
il iti▁es</w>
h ar▁d</w>
f▁ emale</w>
er r
eg un</w>
d▁ et
c▁l ass</w>
b ur▁
an es</w>
Y ou▁ng</w>
Sep t▁
Found ati▁on</w>
▁u▁ p</w>
▁tr ucks</w>
▁there fore</w>
▁th in</w>
▁me ant</w>
▁mar itime</w>
▁liber al</w>
▁l acking</w>
▁inquir ies</w>
▁hos ting</w>
▁f ederal</w>
▁ex emplary</w>
▁ex agg
▁determ ination</w>
▁S an
▁Pur suant</w>
▁D ae
▁Chr ist</w>
tif ied</w>
sion ate</w>
rec og▁n
p▁ en</w>
pre pa▁re</w>
pl a▁y
p as▁
our▁ s</w>
organiz ation</w>
i▁n come</w>
intro du▁c
ien n
form▁ ed</w>
do g</w>
direc ▁
di pl
a▁ w
ag enci▁es</w>
Pyong ya▁ng</w>
N ov▁
D o
13 ▁th</w>
▁y uan</w>
▁y ouths</w>
▁pain ful</w>
▁occ urrence</w>
▁low ering</w>
▁instruc tions</w>
▁infl ation</w>
▁heal th
▁h its</w>
▁commod ity</w>
▁cho osing</w>
▁am o▁ng</w>
▁all ey</w>
▁Super intendent</w>
▁Hist ory</w>
▁Dav id</w>
w ed
re fo▁rm</w>
par▁ ts</w>
p en▁
mov eme▁nt</w>
mar▁ ket</w>
l oo▁
i▁n v▁
iz ▁es</w>
ill▁ s</w>
ho▁ using</w>
e▁ duc
end i▁ng</w>
ef▁ ul</w>
c▁r▁ea te</w>
co▁mp▁ any</w>
b▁ ody</w>
b ut
ans i▁on</w>
Su p▁
G en▁
▁t ank</w>
▁st airs</w>
▁qu arantine</w>
▁prot ested</w>
▁mon opol
▁in scri
▁execu ted</w>
▁exam ining</w>
▁docum entary</w>
▁del eted</w>
▁comm endation</w>
▁Pro gram</w>
▁Par ents</w>
w a▁r</w>
u tio▁n</w>
t▁h rough</w>
tr▁ ation</w>
purch as
p et</w>
oun▁ ds</w>
ol der</w>
n▁ et</w>
m igr
inte▁n t▁ion</w>
indus tri▁es</w>
e▁c ti▁on</w>
e ive</w>
c ol▁l
adminis ▁tr
ad e▁
ac les</w>
St at▁es</w>
O▁ ff▁ice</w>
J anuary</w>
Corpor ati▁on</w>
19 ▁th</w>
▁var iable</w>
▁vac ancy</w>
▁sea food</w>
▁r ush</w>
▁oper ational</w>
▁op posing</w>
▁lea k</w>
▁d ried</w>
▁ar m</w>
▁M ake</w>
▁L os</w>
▁E th
▁B yeong</w>
un▁ d</w>
t▁ ural</w>
sp okes
some▁ thing</w>
sho▁ w</w>
ro▁ w</w>
phy▁ sical</w>
mo th▁er</w>
me th▁od</w>
i▁sh ed</w>
exp re▁ss
est e▁rn</w>
equ i▁p
eas i▁ly</w>
dep▁ th</w>
comm itte▁e</w>
c om</w>
arant ee</w>
ar ea▁s</w>
al▁ read▁y</w>
ab i▁l
M F</w>
Dem▁ ocr
Comm i▁ttee</w>
0 2</w>
▁wareh ouse</w>
▁rec rea
▁r e▁l
▁pres ents</w>
▁n s</w>
▁grea test</w>
▁gr as
▁expres s
▁econom ies</w>
▁ass ist</w>
▁a n▁
▁Y em
▁Ren ault</w>
▁B an
▁As ked</w>
▁4 9</w>
zh ou</w>
work ▁ed</w>
t▁ ion▁s</w>
ti um</w>
r▁ ais
pres ent</w>
po▁ sed</w>
pl▁ ace</w>
ophis tic
oo d▁s</w>
lis▁ h</w>
l ash</w>
iv e▁s</w>
is ive</w>
in e▁ss</w>
hol di▁ng</w>
herei▁n a▁ft▁er</w>
head quarte▁rs</w>
h app▁
h an▁ds</w>
g ave</w>
fin ▁e</w>
e▁ f
establi▁ sh</w>
es try</w>
ec▁ on▁
d ea
al▁ ty</w>
ac ed</w>
a .m.</w>
G er
▁shut down</w>
▁s a▁les</w>
▁propor tional</w>
▁on going</w>
▁mus cle</w>
▁liqu or</w>
▁dr astically</w>
▁d ic
▁d eals</w>
▁celebr ation</w>
▁cap able</w>
▁P ress</w>
▁Net flix</w>
▁Fl oor</w>
▁5 1</w>
z o▁ne</w>
y▁ ong</w>
vi▁ r
val uation</w>
un ▁e</w>
ten d</w>
ta▁l k</w>
s▁ u</w>
sta▁n ding</w>
sh oppi▁ng</w>
sh ing</w>
s ent▁
pr el
l▁ ive</w>
liv ▁es</w>
l at▁er</w>
i ang</w>
develop ed</w>
d e▁nt</w>
a▁ h</w>
att ack</w>
ar ▁ed</w>
anno▁un▁ ced</w>
Govern men▁t</w>
Fin an▁ce</w>
D r
Ch eon
▁war nings</w>
▁pos itively</w>
▁exc ess</w>
▁K TX</w>
▁H ung
st▁ ar</w>
sol ve</w>
pres su▁re</w>
pres sion</w>
por ary</w>
m▁ al</w>
lis hed</w>
j o
itor ium</w>
[...]
